{"<start>": 0, "<pad>": 1, "<end>": 2, "<unk>": 3, "<mask>": 4, "A": 5, "B": 6, "C": 7, "D": 8, "E": 9, "F": 10, "G": 11, "H": 12, "I": 13, "J": 14, "K": 15, "L": 16, "M": 17, "N": 18, "O": 19, "P": 20, "Q": 21, "R": 22, "S": 23, "T": 24, "U": 25, "V": 26, "W": 27, "X": 28, "Y": 29, "Z": 30, "a": 31, "b": 32, "c": 33, "d": 34, "e": 35, "f": 36, "g": 37, "h": 38, "i": 39, "j": 40, "k": 41, "l": 42, "m": 43, "n": 44, "o": 45, "p": 46, "q": 47, "r": 48, "s": 49, "t": 50, "u": 51, "v": 52, "w": 53, "x": 54, "y": 55, "z": 56, "th": 57, "on": 58, "the": 59, "re": 60, "in": 61, "an": 62, "en": 63, "at": 64, "is": 65, "or": 66, "ion": 67, "er": 68, "ou": 69, "al": 70, "to": 71, "es": 72, "of": 73, "ent": 74, "it": 75, "ed": 76, "ro": 77, "and": 78, "ar": 79, "ing": 80, "as": 81, "om": 82, "res": 83, "ic": 84, "le": 85, "Th": 86, "st": 87, "ot": 88, "il": 89, "ment": 90, "ve": 91, "for": 92, "be": 93, "pe": 94, "id": 95, "ct": 96, "ation": 97, "se": 98, "de": 99, "The": 100, "ort": 101, "ce": 102, "Mr": 103, "ut": 104, "port": 105, "ly": 106, "pro": 107, "con": 108, "li": 109, "omm": 110, "ol": 111, "that": 112, "su": 113, "am": 114, "we": 115, "ke": 116, "ad": 117, "sion": 118, "ill": 119, "ate": 120, "im": 121, "ta": 122, "resid": 123, "Comm": 124, "ch": 125, "Presid": 126, "our": 127, "this": 128, "vot": 129, "ag": 130, "wh": 131, "President": 132, "will": 133, "em": 134, "lo": 135, "ld": 136, "ul": 137, "uro": 138, "ex": 139, "ur": 140, "Euro": 141, "po": 142, "are": 143, "Europe": 144, "un": 145, "ission": 146, "ha": 147, "ver": 148, "end": 149, "ould": 150, "ra": 151, "Commission": 152, "ter": 153, "by": 154, "ith": 155, "sh": 156, "ay": 157, "ri": 158, "with": 159, "have": 160, "European": 161, "vote": 162, "est": 163, "ir": 164, "not": 165, "all": 166, "pl": 167, "oun": 168, "ions": 169, "qu": 170, "op": 171, "you": 172, "ive": 173, "gh": 174, "te": 175, "ab": 176, "com": 177, "report": 178, "ac": 179, "ity": 180, "no": 181, "ne": 182, "so": 183, "ts": 184, "ci": 185, "pos": 186, "ore": 187, "ber": 188, "us": 189, "ament": 190, "ies": 191, "Par": 192, "me": 193, "ust": 194, "ain": 195, "liament": 196, "has": 197, "ich": 198, "ext": 199, "ect": 200, "ank": 201, "take": 202, "ge": 203, "gr": 204, "ap": 205, "Parliament": 206, "which": 207, "pport": 208, "ess": 209, "wor": 210, "deb": 211, "ant": 212, "ments": 213, "would": 214, "ther": 215, "par": 216, "ting": 217, "ace": 218, "We": 219, "spe": 220, "like": 221, "debate": 222, "um": 223, "int": 224, "tr": 225, "ard": 226, "ure": 227, "very": 228, "he": 229, "ish": 230, "cl": 231, "if": 232, "sit": 233, "do": 234, "der": 235, "ember": 236, "should": 237, "ak": 238, "ree": 239, "place": 240, "ations": 241, "ject": 242, "iv": 243, "fe": 244, "act": 245, "quest": 246, "cil": 247, "there": 248, "olut": 249, "out": 250, "was": 251, "day": 252, "co": 253, "ans": 254, "pol": 255, "Coun": 256, "Council": 257, "comm": 258, "ers": 259, "but": 260, "fore": 261, "can": 262, "next": 263, "ally": 264, "si": 265, "one": 266, "In": 267, "work": 268, "reg": 269, "inut": 270, "ud": 271, "ma": 272, "ist": 273, "Member": 274, "rom": 275, "od": 276, "low": 277, "ff": 278, "ren": 279, "from": 280, "item": 281, "resolut": 282, "pres": 283, "part": 284, "Un": 285, "go": 286, "ple": 287, "propos": 288, "my": 289, "mo": 290, "ble": 291, "oup": 292, "ted": 293, "bl": 294, "inutes": 295, "again": 296, "support": 297, "ance": 298, "must": 299, "cial": 300, "au": 301, "vi": 302, "EU": 303, "ary": 304, "see": 305, "now": 306, "been": 307, "Mrs": 308, "cont": 309, "bject": 310, "ime": 311, "No": 312, "pre": 313, "ll": 314, "ous": 315, "Commissioner": 316, "also": 317, "its": 318, "hal": 319, "amend": 320, "cr": 321, "row": 322, "ates": 323, "able": 324, "half": 325, "ced": 326, "ire": 327, "du": 328, "thank": 329, "speak": 330, "fin": 331, "av": 332, "dis": 333, "behalf": 334, "ho": 335, "cer": 336, "Minutes": 337, "str": 338, "ght": 339, "form": 340, "coun": 341, "sitting": 342, "ical": 343, "any": 344, "leg": 345, "mor": 346, "ction": 347, "your": 348, "prov": 349, "import": 350, "cy": 351, "Union": 352, "ition": 353, "mot": 354, "tee": 355, "these": 356, "proposal": 357, "other": 358, "St": 359, "Thank": 360, "ue": 361, "cess": 362, "jo": 363, "reat": 364, "tomor": 365, "icul": 366, "tomorrow": 367, "up": 368, "Gr": 369, "ser": 370, "Qu": 371, "resolution": 372, "pr": 373, "per": 374, "ear": 375, "come": 376, "ittee": 377, "more": 378, "ice": 379, "ty": 380, "Group": 381, "against": 382, "Mad": 383, "gent": 384, "ollow": 385, "It": 386, "eur": 387, "Madam": 388, "ful": 389, "ia": 390, "rapport": 391, "rapporteur": 392, "time": 393, "ind": 394, "polic": 395, "follow": 396, "agree": 397, "Quest": 398, "reas": 399, "ise": 400, "ach": 401, "rit": 402, "need": 403, "pm": 404, "ence": 405, "ative": 406, "therefore": 407, "gn": 408, "men": 409, "age": 410, "ated": 411, "their": 412, "who": 413, "present": 414, "This": 415, "Re": 416, "ast": 417, "eve": 418, "off": 419, "sed": 420, "ghts": 421, "ational": 422, "irst": 423, "tak": 424, "issu": 425, "lop": 426, "ome": 427, "ces": 428, "adop": 429, "under": 430, "voted": 431, "uch": 432, "el": 433, "iti": 434, "cep": 435, "econ": 436, "gy": 437, "ev": 438, "what": 439, "Pro": 440, "gen": 441, "bet": 442, "question": 443, "mar": 444, "inter": 445, "red": 446, "ities": 447, "much": 448, "tain": 449, "important": 450, "count": 451, "sa": 452, "ong": 453, "und": 454, "Am": 455, "avour": 456, "new": 457, "cur": 458, "shall": 459, "ens": 460, "cor": 461, "States": 462, "state": 463, "ame": 464, "order": 465, "gentle": 466, "Committee": 467, "adies": 468, "policy": 469, "gentlemen": 470, "unity": 471, "uation": 472, "et": 473, "ial": 474, "favour": 475, "clo": 476, "ask": 477, "ule": 478, "following": 479, "ide": 480, "ef": 481, "get": 482, "ause": 483, "ctive": 484, "Question": 485, "cern": 486, "noon": 487, "ine": 488, "wish": 489, "national": 490, "some": 491, "ures": 492, "speaker": 493, "sp": 494, "ip": 495, "concern": 496, "Con": 497, "uman": 498, "cedure": 499, "ules": 500, "just": 501, "oper": 502, "rel": 503, "mat": 504, "point": 505, "ass": 506, "grat": 507, "As": 508, "velop": 509, "about": 510, "today": 511, "develop": 512, "joint": 513, "gu": 514, "make": 515, "over": 516, "cut": 517, "ward": 518, "ries": 519, "first": 520, "cons": 521, "Su": 522, "pon": 523, "accep": 524, "way": 525, "wo": 526, "pect": 527, "ility": 528, "gratul": 529, "writ": 530, "rights": 531, "ough": 532, "air": 533, "lear": 534, "Amend": 535, "tabl": 536, "polit": 537, "ack": 538, "dec": 539, "congratul": 540, "wel": 541, "ink": 542, "ow": 543, "emp": 544, "isl": 545, "Rule": 546, "trans": 547, "Subject": 548, "amendments": 549, "man": 550, "sure": 551, "respon": 552, "clu": 553, "inte": 554, "countries": 555, "human": 556, "ention": 557, "beli": 558, "adopted": 559, "cause": 560, "ating": 561, "econom": 562, "ck": 563, "fr": 564, "ew": 565, "add": 566, "pri": 567, "hope": 568, "two": 569, "ural": 570, "la": 571, "into": 572, "ladies": 573, "ms": 574, "ople": 575, "serv": 576, "read": 577, "That": 578, "his": 579, "ep": 580, "taken": 581, "situation": 582, "sel": 583, "legisl": 584, "feren": 585, "ubl": 586, "ase": 587, "clear": 588, "tra": 589, "ses": 590, "say": 591, "meas": 592, "ency": 593, "dra": 594, "political": 595, "matter": 596, "thing": 597, "regard": 598, "ween": 599, "they": 600, "between": 601, "cus": 602, "chan": 603, "igh": 604, "believe": 605, "dire": 606, "produ": 607, "ouse": 608, "contin": 609, "year": 610, "stit": 611, "icular": 612, "particular": 613, "position": 614, "ob": 615, "ian": 616, "plement": 617, "because": 618, "ication": 619, "inv": 620, "cond": 621, "bud": 622, "ose": 623, "stitut": 624, "col": 625, "operation": 626, "flo": 627, "Members": 628, "ribut": 629, "questions": 630, "ublic": 631, "Wh": 632, "only": 633, "view": 634, "people": 635, "ended": 636, "welcome": 637, "reason": 638, "finan": 639, "ress": 640, "ult": 641, "gram": 642, "cour": 643, "Fin": 644, "writing": 645, "main": 646, "stand": 647, "min": 648, "good": 649, "ffect": 650, "clud": 651, "Ch": 652, "prote": 653, "sy": 654, "att": 655, "Rules": 656, "put": 657, "inform": 658, "ism": 659, "measures": 660, "amendment": 661, "appro": 662, "House": 663, "mon": 664, "ision": 665, "sible": 666, "ph": 667, "think": 668, "decl": 669, "voting": 670, "stru": 671, "ives": 672, "floor": 673, "fi": 674, "thor": 675, "proble": 676, "closed": 677, "reed": 678, "Procedure": 679, "issue": 680, "ply": 681, "fo": 682, "motions": 683, "sum": 684, "call": 685, "ious": 686, "ual": 687, "resolutions": 688, "mit": 689, "economic": 690, "public": 691, "dif": 692, "congratulate": 693, "fund": 694, "cannot": 695, "want": 696, "bo": 697, "cord": 698, "made": 699, "icult": 700, "ry": 701, "ices": 702, "og": 703, "rece": 704, "resum": 705, "plan": 706, "them": 707, "fact": 708, "sub": 709, "ulation": 710, "inc": 711, "use": 712, "stem": 713, "resumed": 714, "give": 715, "eral": 716, "budget": 717, "ors": 718, "group": 719, "An": 720, "uture": 721, "Amendment": 722, "such": 723, "ite": 724, "program": 725, "ref": 726, "ok": 727, "here": 728, "alth": 729, "susp": 730, "For": 731, "agreement": 732, "cooperation": 733, "ues": 734, "So": 735, "those": 736, "marke": 737, "try": 738, "great": 739, "Mar": 740, "ict": 741, "ele": 742, "wever": 743, "being": 744, "ship": 745, "right": 746, "request": 747, "arge": 748, "future": 749, "isation": 750, "There": 751, "ten": 752, "ound": 753, "ised": 754, "wer": 755, "social": 756, "iven": 757, "whe": 758, "certain": 759, "financial": 760, "ner": 761, "oral": 762, "conclu": 763, "Community": 764, "most": 765, "qual": 766, "ider": 767, "itiz": 768, "ig": 769, "ign": 770, "common": 771, "author": 772, "bas": 773, "were": 774, "Finally": 775, "vir": 776, "demo": 777, "ional": 778, "cent": 779, "system": 780, "does": 781, "ory": 782, "ning": 783, "os": 784, "statement": 785, "onment": 786, "bility": 787, "many": 788, "her": 789, "crat": 790, "motion": 791, "loy": 792, "suspended": 793, "well": 794, "bal": 795, "ince": 796, "fter": 797, "consider": 798, "implement": 799, "than": 800, "comp": 801, "vironment": 802, "citiz": 803, "development": 804, "interes": 805, "med": 806, "ft": 807, "every": 808, "colle": 809, "ints": 810, "De": 811, "know": 812, "object": 813, "enda": 814, "br": 815, "ech": 816, "action": 817, "high": 818, "when": 819, "effect": 820, "three": 821, "session": 822, "pet": 823, "urs": 824, "Be": 825, "ener": 826, "said": 827, "issues": 828, "ird": 829, "cell": 830, "hap": 831, "receiv": 832, "pur": 833, "points": 834, "urther": 835, "subject": 836, "org": 837, "discus": 838, "ursday": 839, "Thursday": 840, "stain": 841, "Al": 842, "ned": 843, "inci": 844, "too": 845, "increas": 846, "vious": 847, "vel": 848, "forward": 849, "cre": 850, "set": 851, "expres": 852, "legislative": 853, "received": 854, "raph": 855, "citizens": 856, "energy": 857, "less": 858, "market": 859, "initi": 860, "proposals": 861, "des": 862, "could": 863, "accept": 864, "omen": 865, "safe": 866, "declare": 867, "sect": 868, "curity": 869, "protection": 870, "information": 871, "commit": 872, "requ": 873, "accord": 874, "strate": 875, "mi": 876, "ving": 877, "reasons": 878, "ild": 879, "ail": 880, "excell": 881, "Ag": 882, "itions": 883, "curren": 884, "tion": 885, "both": 886, "princi": 887, "why": 888, "DE": 889, "neg": 890, "fully": 891, "ann": 892, "conf": 893, "word": 894, "ready": 895, "employ": 896, "same": 897, "look": 898, "law": 899, "excellent": 900, "reject": 901, "deal": 902, "possible": 903, "tabled": 904, "respect": 905, "second": 906, "What": 907, "colleag": 908, "ensure": 909, "approv": 910, "art": 911, "environment": 912, "sign": 913, "ffic": 914, "On": 915, "oc": 916, "includ": 917, "contribut": 918, "ceed": 919, "rough": 920, "even": 921, "may": 922, "reports": 923, "jor": 924, "after": 925, "fic": 926, "ctions": 927, "far": 928, "Presidency": 929, "EC": 930, "then": 931, "uring": 932, "major": 933, "ran": 934, "To": 935, "tern": 936, "long": 937, "directive": 938, "had": 939, "programme": 940, "hel": 941, "institut": 942, "before": 943, "process": 944, "allow": 945, "opport": 946, "suc": 947, "FR": 948, "ves": 949, "through": 950, "legal": 951, "cts": 952, "open": 953, "answer": 954, "continue": 955, "real": 956, "help": 957, "commend": 958, "compet": 959, "level": 960, "necess": 961, "change": 962, "short": 963, "gover": 964, "pare": 965, "international": 966, "text": 967, "sim": 968, "speci": 969, "ference": 970, "importance": 971, "vention": 972, "ately": 973, "already": 974, "achi": 975, "current": 976, "oti": 977, "agraph": 978, "services": 979, "num": 980, "going": 981, "health": 982, "pli": 983, "draw": 984, "let": 985, "given": 986, "ks": 987, "ited": 988, "sing": 989, "decision": 990, "how": 991, "since": 992, "negoti": 993, "establ": 994, "comments": 995, "establish": 996, "mak": 997, "key": 998, "led": 999, "proposed": 1000, "aid": 1001, "ese": 1002, "ific": 1003, "ges": 1004, "solut": 1005, "last": 1006, "sur": 1007, "ffair": 1008, "course": 1009, "pen": 1010, "within": 1011, "problem": 1012, "reaty": 1013, "security": 1014, "case": 1015, "ential": 1016, "opin": 1017, "jour": 1018, "govern": 1019, "cra": 1020, "exam": 1021, "world": 1022, "organ": 1023, "done": 1024, "redu": 1025, "own": 1026, "ied": 1027, "fish": 1028, "chn": 1029, "previous": 1030, "cing": 1031, "further": 1032, "consum": 1033, "necessary": 1034, "without": 1035, "country": 1036, "Ap": 1037, "Is": 1038, "road": 1039, "ffairs": 1040, "itive": 1041, "pursu": 1042, "paragraph": 1043, "once": 1044, "back": 1045, "pers": 1046, "represent": 1047, "attention": 1048, "pend": 1049, "commun": 1050, "wards": 1051, "pose": 1052, "soci": 1053, "number": 1054, "Ho": 1055, "aim": 1056, "ile": 1057, "reach": 1058, "ister": 1059, "table": 1060, "agenda": 1061, "amework": 1062, "concerning": 1063, "dist": 1064, "speech": 1065, "years": 1066, "conclusion": 1067, "specific": 1068, "vis": 1069, "proceed": 1070, "prom": 1071, "agreed": 1072, "ffice": 1073, "ved": 1074, "quality": 1075, "gress": 1076, "member": 1077, "gin": 1078, "particularly": 1079, "success": 1080, "votes": 1081, "self": 1082, "Office": 1083, "ord": 1084, "indust": 1085, "isions": 1086, "cris": 1087, "car": 1088, "top": 1089, "ents": 1090, "still": 1091, "Inter": 1092, "ability": 1093, "Before": 1094, "accordance": 1095, "during": 1096, "sector": 1097, "Sch": 1098, "Social": 1099, "prove": 1100, "serious": 1101, "land": 1102, "large": 1103, "cas": 1104, "tal": 1105, "However": 1106, "You": 1107, "Nos": 1108, "women": 1109, "ital": 1110, "gration": 1111, "few": 1112, "transport": 1113, "Fr": 1114, "area": 1115, "committee": 1116, "Tur": 1117, "techn": 1118, "general": 1119, "Ar": 1120, "ret": 1121, "Affairs": 1122, "ination": 1123, "crim": 1124, "regulation": 1125, "approved": 1126, "person": 1127, "ings": 1128, "move": 1129, "prior": 1130, "Treaty": 1131, "iter": 1132, "Reg": 1133, "ines": 1134, "opinion": 1135, "tic": 1136, "statements": 1137, "tail": 1138, "trade": 1139, "war": 1140, "procedure": 1141, "Secon": 1142, "Second": 1143, "inde": 1144, "If": 1145, "invol": 1146, "Bar": 1147, "val": 1148, "ided": 1149, "adjour": 1150, "Fund": 1151, "others": 1152, "iver": 1153, "ract": 1154, "amental": 1155, "gether": 1156, "require": 1157, "ss": 1158, "ising": 1159, "hon": 1160, "dem": 1161, "where": 1162, "employment": 1163, "earch": 1164, "reedom": 1165, "effor": 1166, "towards": 1167, "lobal": 1168, "hol": 1169, "yes": 1170, "step": 1171, "Co": 1172, "agr": 1173, "Questions": 1174, "legislation": 1175, "safety": 1176, "opportunity": 1177, "ven": 1178, "progress": 1179, "draft": 1180, "appropri": 1181, "rol": 1182, "sol": 1183, "arity": 1184, "lim": 1185, "six": 1186, "together": 1187, "ffici": 1188, "tru": 1189, "aw": 1190, "ral": 1191, "remain": 1192, "improve": 1193, "crisis": 1194, "sen": 1195, "Do": 1196, "Dem": 1197, "cracy": 1198, "better": 1199, "Let": 1200, "bod": 1201, "begin": 1202, "agricult": 1203, "problems": 1204, "cratic": 1205, "adjourned": 1206, "reform": 1207, "final": 1208, "strategy": 1209, "iness": 1210, "iz": 1211, "appl": 1212, "detail": 1213, "ban": 1214, "note": 1215, "bon": 1216, "ror": 1217, "cal": 1218, "ists": 1219, "resul": 1220, "diff": 1221, "ger": 1222, "reco": 1223, "differen": 1224, "role": 1225, "mber": 1226, "mention": 1227, "Party": 1228, "promot": 1229, "third": 1230, "ina": 1231, "refer": 1232, "olog": 1233, "regul": 1234, "needs": 1235, "cu": 1236, "sibility": 1237, "lig": 1238, "coming": 1239, "approach": 1240, "effective": 1241, "peri": 1242, "ways": 1243, "framework": 1244, "den": 1245, "van": 1246, "lead": 1247, "areas": 1248, "bus": 1249, "minutes": 1250, "tax": 1251, "pursuant": 1252, "nes": 1253, "eting": 1254, "food": 1255, "bour": 1256, "comple": 1257, "positive": 1258, "Amendments": 1259, "pay": 1260, "atives": 1261, "My": 1262, "rules": 1263, "democracy": 1264, "ben": 1265, "ources": 1266, "line": 1267, "whole": 1268, "Se": 1269, "king": 1270, "sequ": 1271, "matters": 1272, "Pol": 1273, "eld": 1274, "recommend": 1275, "aran": 1276, "ples": 1277, "invest": 1278, "initiative": 1279, "used": 1280, "United": 1281, "products": 1282, "Gre": 1283, "aspect": 1284, "Ri": 1285, "list": 1286, "def": 1287, "Ex": 1288, "bri": 1289, "cation": 1290, "cap": 1291, "words": 1292, "urgent": 1293, "principle": 1294, "colleagues": 1295, "vent": 1296, "ater": 1297, "rodu": 1298, "child": 1299, "however": 1300, "implementation": 1301, "ification": 1302, "pract": 1303, "pleas": 1304, "Ver": 1305, "meeting": 1306, "means": 1307, "ness": 1308, "cted": 1309, "inute": 1310, "understand": 1311, "Secondly": 1312, "minute": 1313, "light": 1314, "introdu": 1315, "medi": 1316, "freedom": 1317, "working": 1318, "ath": 1319, "ES": 1320, "Li": 1321, "comb": 1322, "taking": 1323, "Wed": 1324, "nesday": 1325, "Wednesday": 1326, "reng": 1327, "paren": 1328, "brief": 1329, "promise": 1330, "fundamental": 1331, "project": 1332, "policies": 1333, "relations": 1334, "Demo": 1335, "First": 1336, "strong": 1337, "negotiations": 1338, "honour": 1339, "terror": 1340, "Cor": 1341, "guaran": 1342, "did": 1343, "making": 1344, "results": 1345, "activ": 1346, "job": 1347, "ca": 1348, "fac": 1349, "sup": 1350, "business": 1351, "Min": 1352, "abstain": 1353, "mind": 1354, "conclud": 1355, "including": 1356, "als": 1357, "research": 1358, "docu": 1359, "En": 1360, "streng": 1361, "care": 1362, "anim": 1363, "institutions": 1364, "different": 1365, "distribut": 1366, "har": 1367, "Le": 1368, "Ladies": 1369, "lan": 1370, "parliament": 1371, "mis": 1372, "force": 1373, "ify": 1374, "ified": 1375, "ight": 1376, "rest": 1377, "constru": 1378, "Rus": 1379, "peci": 1380, "sia": 1381, "limate": 1382, "find": 1383, "full": 1384, "difficult": 1385, "reply": 1386, "terday": 1387, "State": 1388, "II": 1389, "Deve": 1390, "Develop": 1391, "nat": 1392, "ident": 1393, "Agree": 1394, "Rom": 1395, "cult": 1396, "These": 1397, "viol": 1398, "wn": 1399, "net": 1400, "Dire": 1401, "He": 1402, "eries": 1403, "illion": 1404, "extre": 1405, "addition": 1406, "border": 1407, "card": 1408, "sustain": 1409, "access": 1410, "thanks": 1411, "global": 1412, "inal": 1413, "ilit": 1414, "gg": 1415, "allen": 1416, "deleg": 1417, "concerns": 1418, "Lis": 1419, "pass": 1420, "vo": 1421, "whether": 1422, "benef": 1423, "workers": 1424, "grow": 1425, "field": 1426, "efforts": 1427, "With": 1428, "close": 1429, "environmental": 1430, "CO": 1431, "agreements": 1432, "urn": 1433, "control": 1434, "Development": 1435, "rejected": 1436, "Minister": 1437, "ically": 1438, "peace": 1439, "corre": 1440, "direct": 1441, "industry": 1442, "Ma": 1443, "free": 1444, "ME": 1445, "tun": 1446, "concerned": 1447, "Time": 1448, "him": 1449, "recent": 1450, "SE": 1451, "ris": 1452, "itor": 1453, "conclude": 1454, "discussion": 1455, "express": 1456, "yesterday": 1457, "ants": 1458, "icip": 1459, "compromise": 1460, "ross": 1461, "ought": 1462, "imp": 1463, "Lisbon": 1464, "another": 1465, "authorities": 1466, "agement": 1467, "accepted": 1468, "EL": 1469, "especi": 1470, "standard": 1471, "especially": 1472, "hes": 1473, "explan": 1474, "four": 1475, "challen": 1476, "les": 1477, "extreme": 1478, "ling": 1479, "instru": 1480, "play": 1481, "fight": 1482, "Agreement": 1483, "del": 1484, "irm": 1485, "basis": 1486, "Turkey": 1487, "recogn": 1488, "Report": 1489, "regarding": 1490, "At": 1491, "best": 1492, "ler": 1493, "expect": 1494, "une": 1495, "increase": 1496, "terms": 1497, "account": 1498, "provide": 1499, "cession": 1500, "democratic": 1501, "IT": 1502, "ily": 1503, "unt": 1504, "bi": 1505, "start": 1506, "essential": 1507, "ivers": 1508, "var": 1509, "ins": 1510, "encour": 1511, "ug": 1512, "response": 1513, "aspects": 1514, "May": 1515, "di": 1516, "down": 1517, "nership": 1518, "Artic": 1519, "Tr": 1520, "bu": 1521, "wers": 1522, "ining": 1523, "address": 1524, "ences": 1525, "tack": 1526, "nal": 1527, "acceptable": 1528, "uary": 1529, "che": 1530, "clar": 1531, "conditions": 1532, "climate": 1533, "ever": 1534, "lack": 1535, "ances": 1536, "Str": 1537, "feel": 1538, "prevent": 1539, "really": 1540, "idarity": 1541, "edu": 1542, "term": 1543, "PE": 1544, "rapporteurs": 1545, "bring": 1546, "resources": 1547, "ourt": 1548, "relation": 1549, "Gree": 1550, "clearly": 1551, "comment": 1552, "hear": 1553, "ogue": 1554, "based": 1555, "Approv": 1556, "UE": 1557, "ica": 1558, "ick": 1559, "responsibility": 1560, "Democrat": 1561, "honourable": 1562, "Jo": 1563, "Med": 1564, "ently": 1565, "gency": 1566, "reading": 1567, "bil": 1568, "mes": 1569, "ternal": 1570, "Approval": 1571, "beral": 1572, "agricultural": 1573, "Rights": 1574, "cost": 1575, "istic": 1576, "asked": 1577, "groups": 1578, "py": 1579, "Court": 1580, "Third": 1581, "deli": 1582, "exp": 1583, "appropriate": 1584, "declar": 1585, "hesion": 1586, "tim": 1587, "vict": 1588, "remar": 1589, "ises": 1590, "Com": 1591, "inno": 1592, "arian": 1593, "defin": 1594, "achiev": 1595, "eas": 1596, "always": 1597, "extremely": 1598, "ave": 1599, "transparen": 1600, "PL": 1601, "bre": 1602, "Conference": 1603, "achieve": 1604, "Gover": 1605, "Sp": 1606, "ety": 1607, "share": 1608, "actions": 1609, "keep": 1610, "rather": 1611, "children": 1612, "Article": 1613, "least": 1614, "contain": 1615, "something": 1616, "And": 1617, "distributed": 1618, "mall": 1619, "fel": 1620, "government": 1621, "Govern": 1622, "fortun": 1623, "proced": 1624, "interest": 1625, "truct": 1626, "entions": 1627, "protect": 1628, "Therefore": 1629, "appe": 1630, "regions": 1631, "particip": 1632, "objectives": 1633, "vil": 1634, "result": 1635, "gener": 1636, "respond": 1637, "certainly": 1638, "improv": 1639, "show": 1640, "ier": 1641, "tle": 1642, "signific": 1643, "example": 1644, "Directive": 1645, "ible": 1646, "sch": 1647, "inclu": 1648, "ialogue": 1649, "Ro": 1650, "quite": 1651, "interests": 1652, "PPE": 1653, "presid": 1654, "vision": 1655, "she": 1656, "subst": 1657, "rele": 1658, "ania": 1659, "AL": 1660, "fl": 1661, "Russia": 1662, "posed": 1663, "head": 1664, "speaking": 1665, "written": 1666, "greater": 1667, "gl": 1668, "stat": 1669, "immi": 1670, "trad": 1671, "concludes": 1672, "June": 1673, "five": 1674, "having": 1675, "aware": 1676, "Ber": 1677, "wered": 1678, "majority": 1679, "comes": 1680, "observ": 1681, "intend": 1682, "assist": 1683, "Sw": 1684, "sat": 1685, "mission": 1686, "various": 1687, "civil": 1688, "colleague": 1689, "demand": 1690, "ek": 1691, "effici": 1692, "hand": 1693, "omic": 1694, "ages": 1695, "plain": 1696, "Afr": 1697, "io": 1698, "tees": 1699, "regional": 1700, "emphas": 1701, "Ann": 1702, "answered": 1703, "fer": 1704, "charge": 1705, "Econ": 1706, "ij": 1707, "regards": 1708, "programmes": 1709, "ton": 1710, "ually": 1711, "assess": 1712, "developing": 1713, "million": 1714, "wa": 1715, "icial": 1716, "contribution": 1717, "son": 1718, "consequ": 1719, "commitment": 1720, "communication": 1721, "impact": 1722, "Trans": 1723, "Tra": 1724, "ides": 1725, "raised": 1726, "context": 1727, "post": 1728, "sustainable": 1729, "Or": 1730, "affect": 1731, "ged": 1732, "ggest": 1733, "Economic": 1734, "dialogue": 1735, "largement": 1736, "small": 1737, "suggest": 1738, "objective": 1739, "hold": 1740, "activities": 1741, "Ad": 1742, "special": 1743, "society": 1744, "Pe": 1745, "US": 1746, "production": 1747, "mentioned": 1748, "broad": 1749, "propose": 1750, "management": 1751, "euro": 1752, "mom": 1753, "thus": 1754, "become": 1755, "competition": 1756, "solidarity": 1757, "satis": 1758, "RO": 1759, "please": 1760, "pleased": 1761, "pack": 1762, "treat": 1763, "immedi": 1764, "dr": 1765, "ove": 1766, "though": 1767, "submit": 1768, "cases": 1769, "details": 1770, "Republic": 1771, "fail": 1772, "non": 1773, "ata": 1774, "sul": 1775, "among": 1776, "principles": 1777, "ean": 1778, "cember": 1779, "things": 1780, "December": 1781, "indeed": 1782, "Our": 1783, "discrim": 1784, "monitor": 1785, "Government": 1786, "each": 1787, "selves": 1788, "terrorism": 1789, "standards": 1790, "farm": 1791, "pat": 1792, "Does": 1793, "Bud": 1794, "dou": 1795, "intentions": 1796, "avail": 1797, "Agenda": 1798, "Can": 1799, "name": 1800, "yet": 1801, "proper": 1802, "focus": 1803, "consumers": 1804, "lap": 1805, "eng": 1806, "istr": 1807, "abour": 1808, "cohesion": 1809, "continu": 1810, "complete": 1811, "NG": 1812, "aster": 1813, "sta": 1814, "power": 1815, "Green": 1816, "Mc": 1817, "Tues": 1818, "ensive": 1819, "economy": 1820, "March": 1821, "Tuesday": 1822, "cise": 1823, "education": 1824, "significant": 1825, "fam": 1826, "fair": 1827, "uclear": 1828, "internal": 1829, "body": 1830, "langu": 1831, "Bel": 1832, "Col": 1833, "enlargement": 1834, "atory": 1835, "plied": 1836, "guarantee": 1837, "liance": 1838, "funding": 1839, "parliamentary": 1840, "fortunately": 1841, "struct": 1842, "elect": 1843, "tary": 1844, "prof": 1845, "speeches": 1846, "cred": 1847, "seem": 1848, "blue": 1849, "supported": 1850, "responsible": 1851, "month": 1852, "period": 1853, "Br": 1854, "sk": 1855, "while": 1856, "presented": 1857, "decisions": 1858, "promote": 1859, "Brit": 1860, "limit": 1861, "soon": 1862, "coord": 1863, "Are": 1864, "kind": 1865, "Regulation": 1866, "involved": 1867, "mone": 1868, "happy": 1869, "Convention": 1870, "solution": 1871, "Sa": 1872, "Wor": 1873, "entire": 1874, "sels": 1875, "members": 1876, "Thirdly": 1877, "victim": 1878, "rist": 1879, "ont": 1880, "priority": 1881, "accession": 1882, "regret": 1883, "build": 1884, "everyone": 1885, "orig": 1886, "aly": 1887, "ending": 1888, "until": 1889, "itself": 1890, "aged": 1891, "oblig": 1892, "haps": 1893, "rule": 1894, "icy": 1895, "istan": 1896, "ie": 1897, "EUR": 1898, "relating": 1899, "mp": 1900, "demon": 1901, "Commun": 1902, "due": 1903, "compan": 1904, "But": 1905, "mer": 1906, "amp": 1907, "ably": 1908, "moment": 1909, "ini": 1910, "grate": 1911, "amended": 1912, "wishes": 1913, "simply": 1914, "solute": 1915, "ba": 1916, "above": 1917, "nor": 1918, "test": 1919, "tell": 1920, "rench": 1921, "prepar": 1922, "China": 1923, "single": 1924, "fellow": 1925, "available": 1926, "PSE": 1927, "uge": 1928, "erv": 1929, "adv": 1930, "cru": 1931, "systems": 1932, "Last": 1933, "Pal": 1934, "veral": 1935, "Jan": 1936, "remarks": 1937, "data": 1938, "cies": 1939, "included": 1940, "growth": 1941, "French": 1942, "lit": 1943, "plac": 1944, "apply": 1945, "increasing": 1946, "International": 1947, "Policy": 1948, "listen": 1949, "lex": 1950, "constructive": 1951, "package": 1952, "ibility": 1953, "repe": 1954, "review": 1955, "anish": 1956, "discharge": 1957, "uel": 1958, "presentation": 1959, "Christ": 1960, "consumer": 1961, "Swed": 1962, "ither": 1963, "stop": 1964, "itarian": 1965, "held": 1966, "funds": 1967, "iveness": 1968, "abstained": 1969, "Ger": 1970, "theless": 1971, "disaster": 1972, "correct": 1973, "UN": 1974, "endor": 1975, "active": 1976, "Ind": 1977, "Sep": 1978, "isting": 1979, "ste": 1980, "transparency": 1981, "Vice": 1982, "region": 1983, "cept": 1984, "decided": 1985, "happen": 1986, "priorities": 1987, "Democrats": 1988, "Oc": 1989, "tation": 1990, "ension": 1991, "debates": 1992, "version": 1993, "prepare": 1994, "presidency": 1995, "rup": 1996, "ined": 1997, "upon": 1998, "fisheries": 1999, "Port": 2000, "ications": 2001, "nothing": 2002, "Constitut": 2003, "bourg": 2004, "Pap": 2005, "cir": 2006, "nuclear": 2007, "ports": 2008, "consul": 2009, "amber": 2010, "indiv": 2011, "changes": 2012, "little": 2013, "hard": 2014, "jud": 2015, "life": 2016, "amb": 2017, "urge": 2018, "ground": 2019, "refle": 2020, "ira": 2021, "iting": 2022, "ried": 2023, "crit": 2024, "adoption": 2025, "integration": 2026, "Since": 2027, "water": 2028, "never": 2029, "ministr": 2030, "ranean": 2031, "iterranean": 2032, "victims": 2033, "sil": 2034, "addres": 2035, "East": 2036, "pop": 2037, "technical": 2038, "discrimination": 2039, "AT": 2040, "bly": 2041, "enter": 2042, "All": 2043, "creat": 2044, "thly": 2045, "olo": 2046, "rial": 2047, "ghted": 2048, "absolute": 2049, "adopt": 2050, "guid": 2051, "application": 2052, "depend": 2053, "elections": 2054, "cultural": 2055, "Mediterranean": 2056, "bia": 2057, "milit": 2058, "tober": 2059, "priv": 2060, "assistance": 2061, "October": 2062, "Further": 2063, "Van": 2064, "dut": 2065, "spo": 2066, "provisions": 2067, "receive": 2068, "currently": 2069, "times": 2070, "Gu": 2071, "mod": 2072, "idence": 2073, "called": 2074, "subs": 2075, "individ": 2076, "gar": 2077, "several": 2078, "constitut": 2079, "iving": 2080, "strateg": 2081, "projects": 2082, "emission": 2083, "warm": 2084, "Ko": 2085, "bur": 2086, "withdraw": 2087, "independ": 2088, "How": 2089, "sor": 2090, "explain": 2091, "lling": 2092, "include": 2093, "outcome": 2094, "Greece": 2095, "companies": 2096, "mess": 2097, "pover": 2098, "personal": 2099, "delegation": 2100, "doub": 2101, "Human": 2102, "Res": 2103, "equ": 2104, "infr": 2105, "quick": 2106, "needed": 2107, "maintain": 2108, "annual": 2109, "Corre": 2110, "found": 2111, "deter": 2112, "using": 2113, "might": 2114, "Joint": 2115, "Africa": 2116, "consequences": 2117, "jobs": 2118, "relev": 2119, "immigration": 2120, "Ir": 2121, "reached": 2122, "harmon": 2123, "British": 2124, "circ": 2125, "Corrections": 2126, "GUE": 2127, "Just": 2128, "provided": 2129, "Firstly": 2130, "document": 2131, "network": 2132, "Cent": 2133, "dom": 2134, "confl": 2135, "poverty": 2136, "Sum": 2137, "raise": 2138, "ussels": 2139, "elines": 2140, "declared": 2141, "NGL": 2142, "Brussels": 2143, "grateful": 2144, "individual": 2145, "dan": 2146, "death": 2147, "They": 2148, "administr": 2149, "gets": 2150, "anti": 2151, "preci": 2152, "expressed": 2153, "announ": 2154, "MEP": 2155, "innov": 2156, "cho": 2157, "turn": 2158, "allo": 2159, "offer": 2160, "creation": 2161, "organis": 2162, "Isra": 2163, "az": 2164, "record": 2165, "anced": 2166, "committees": 2167, "explanations": 2168, "procedures": 2169, "Ne": 2170, "hist": 2171, "unacceptable": 2172, "criter": 2173, "thanking": 2174, "Barro": 2175, "labour": 2176, "ourism": 2177, "Gen": 2178, "Ju": 2179, "sto": 2180, "sent": 2181, "mean": 2182, "fishing": 2183, "Summit": 2184, "Im": 2185, "restr": 2186, "heard": 2187, "service": 2188, "Bal": 2189, "Sect": 2190, "ator": 2191, "vember": 2192, "November": 2193, "avo": 2194, "morning": 2195, "congratulations": 2196, "Trade": 2197, "cand": 2198, "ging": 2199, "threat": 2200, "partnership": 2201, "speakers": 2202, "idea": 2203, "wanted": 2204, "documents": 2205, "submitted": 2206, "Nations": 2207, "One": 2208, "vital": 2209, "conclusions": 2210, "Romania": 2211, "January": 2212, "ade": 2213, "defence": 2214, "Nor": 2215, "big": 2216, "giving": 2217, "ians": 2218, "link": 2219, "experi": 2220, "mechan": 2221, "Action": 2222, "related": 2223, "violence": 2224, "lapses": 2225, "months": 2226, "Irish": 2227, "Lu": 2228, "PT": 2229, "pite": 2230, "liberal": 2231, "appreci": 2232, "guard": 2233, "declarations": 2234, "relevant": 2235, "Irel": 2236, "arter": 2237, "agen": 2238, "aging": 2239, "views": 2240, "makes": 2241, "benefit": 2242, "Furthermore": 2243, "Ireland": 2244, "Car": 2245, "dam": 2246, "cover": 2247, "although": 2248, "reduce": 2249, "combat": 2250, "Strate": 2251, "crucial": 2252, "Ac": 2253, "Per": 2254, "fall": 2255, "na": 2256, "wise": 2257, "enh": 2258, "rail": 2259, "Appl": 2260, "ological": 2261, "prepared": 2262, "silence": 2263, "ology": 2264, "nam": 2265, "ron": 2266, "ics": 2267, "waste": 2268, "join": 2269, "traffic": 2270, "thod": 2271, "achieved": 2272, "ALE": 2273, "tember": 2274, "youn": 2275, "enough": 2276, "Presidents": 2277, "plementary": 2278, "challenges": 2279, "appear": 2280, "September": 2281, "sorry": 2282, "Pos": 2283, "ators": 2284, "stage": 2285, "unities": 2286, "check": 2287, "IN": 2288, "Ira": 2289, "ze": 2290, "outh": 2291, "established": 2292, "demonstr": 2293, "Iraq": 2294, "renew": 2295, "condem": 2296, "method": 2297, "create": 2298, "requirements": 2299, "subsid": 2300, "Four": 2301, "pt": 2302, "por": 2303, "rely": 2304, "exts": 2305, "answers": 2306, "preh": 2307, "Amer": 2308, "firstly": 2309, "continuation": 2310, "minor": 2311, "Explan": 2312, "strengthe": 2313, "addressed": 2314, "DR": 2315, "Mon": 2316, "pot": 2317, "rat": 2318, "existing": 2319, "supports": 2320, "institutional": 2321, "ledge": 2322, "July": 2323, "Fe": 2324, "attack": 2325, "local": 2326, "positions": 2327, "parties": 2328, "training": 2329, "initiatives": 2330, "range": 2331, "Bur": 2332, "hic": 2333, "lines": 2334, "rad": 2335, "finally": 2336, "idered": 2337, "considered": 2338, "interesting": 2339, "Lastly": 2340, "bar": 2341, "resol": 2342, "noted": 2343, "indic": 2344, "humanitarian": 2345, "monitoring": 2346, "guidelines": 2347, "ons": 2348, "doing": 2349, "deser": 2350, "risk": 2351, "young": 2352, "ium": 2353, "mult": 2354, "stability": 2355, "budgetary": 2356, "plies": 2357, "iversity": 2358, "Barroso": 2359, "Ge": 2360, "stud": 2361, "seven": 2362, "territ": 2363, "compreh": 2364, "basic": 2365, "talk": 2366, "military": 2367, "message": 2368, "criteria": 2369, "sci": 2370, "ican": 2371, "imum": 2372, "Chamber": 2373, "consideration": 2374, "costs": 2375, "Koso": 2376, "Fore": 2377, "Lef": 2378, "char": 2379, "selt": 2380, "endorse": 2381, "avoid": 2382, "Posselt": 2383, "week": 2384, "appoint": 2385, "viated": 2386, "interpre": 2387, "discuss": 2388, "breviated": 2389, "farmers": 2390, "Section": 2391, "Foreign": 2392, "strengthen": 2393, "language": 2394, "Left": 2395, "SK": 2396, "itors": 2397, "left": 2398, "remains": 2399, "regulations": 2400, "encourage": 2401, "MEPs": 2402, "AC": 2403, "After": 2404, "illegal": 2405, "vehic": 2406, "suffici": 2407, "perhaps": 2408, "saying": 2409, "direction": 2410, "afternoon": 2411, "aimed": 2412, "assessment": 2413, "money": 2414, "Agency": 2415, "Iran": 2416, "Mal": 2417, "flex": 2418, "star": 2419, "ution": 2420, "external": 2421, "Verts": 2422, "ELDR": 2423, "emissions": 2424, "Explanation": 2425, "Pr": 2426, "markets": 2427, "seems": 2428, "Strategy": 2429, "Sol": 2430, "ik": 2431, "iation": 2432, "mid": 2433, "tar": 2434, "ago": 2435, "penal": 2436, "World": 2437, "Kosovo": 2438, "super": 2439, "ureau": 2440, "ished": 2441, "ighbour": 2442, "required": 2443, "practice": 2444, "danger": 2445, "task": 2446, "Part": 2447, "foreign": 2448, "doubt": 2449, "Fish": 2450, "Mid": 2451, "breach": 2452, "stress": 2453, "uses": 2454, "meet": 2455, "crime": 2456, "spir": 2457, "additional": 2458, "Spanish": 2459, "improving": 2460, "satisfact": 2461, "immediately": 2462, "Agr": 2463, "More": 2464, "cure": 2465, "remind": 2466, "riend": 2467, "Program": 2468, "justice": 2469, "consist": 2470, "integr": 2471, "Mart": 2472, "reduction": 2473, "recommendation": 2474, "instruments": 2475, "cross": 2476, "dle": 2477, "ones": 2478, "actually": 2479, "intervention": 2480, "Greens": 2481, "quickly": 2482, "Agricult": 2483, "Apr": 2484, "ender": 2485, "summit": 2486, "design": 2487, "steps": 2488, "COM": 2489, "People": 2490, "organisations": 2491, "April": 2492, "Po": 2493, "stances": 2494, "advan": 2495, "grant": 2496, "event": 2497, "informed": 2498, "governments": 2499, "glad": 2500, "absolutely": 2501, "Justice": 2502, "friend": 2503, "gan": 2504, "gas": 2505, "rate": 2506, "obvious": 2507, "increased": 2508, "opened": 2509, "circum": 2510, "face": 2511, "firm": 2512, "enary": 2513, "acc": 2514, "poll": 2515, "takes": 2516, "congratulating": 2517, "briefly": 2518, "delay": 2519, "participation": 2520, "along": 2521, "ott": 2522, "ilar": 2523, "supporting": 2524, "opportunities": 2525, "criminal": 2526, "capital": 2527, "Yes": 2528, "iding": 2529, "powers": 2530, "contributions": 2531, "treatment": 2532, "Cy": 2533, "blo": 2534, "arus": 2535, "commer": 2536, "Prote": 2537, "financing": 2538, "standing": 2539, "return": 2540, "Belarus": 2541, "vol": 2542, "states": 2543, "opposition": 2544, "acy": 2545, "across": 2546, "balance": 2547, "safeguard": 2548, "agriculture": 2549, "recommendations": 2550, "Environment": 2551, "Sy": 2552, "aud": 2553, "ison": 2554, "France": 2555, "contains": 2556, "Palest": 2557, "ires": 2558, "plenary": 2559, "moder": 2560, "Now": 2561, "movement": 2562, "Composition": 2563, "determin": 2564, "Mac": 2565, "lum": 2566, "leave": 2567, "implementing": 2568, "Once": 2569, "reality": 2570, "successful": 2571, "values": 2572, "nature": 2573, "flu": 2574, "duty": 2575, "Bul": 2576, "ners": 2577, "los": 2578, "objections": 2579, "Security": 2580, "comprehensive": 2581, "fra": 2582, "ken": 2583, "ond": 2584, "sibil": 2585, "goods": 2586, "investment": 2587, "Mor": 2588, "Sta": 2589, "date": 2590, "equal": 2591, "ying": 2592, "ateral": 2593, "conv": 2594, "chair": 2595, "according": 2596, "capac": 2597, "delegations": 2598, "delighted": 2599, "cri": 2600, "amoun": 2601, "emer": 2602, "opposed": 2603, "trust": 2604, "true": 2605, "nergy": 2606, "everything": 2607, "supplementary": 2608, "Annex": 2609, "private": 2610, "strategic": 2611, "restrict": 2612, "sibilities": 2613, "Go": 2614, "uine": 2615, "wide": 2616, "ash": 2617, "astruct": 2618, "follows": 2619, "official": 2620, "genuine": 2621, "natural": 2622, "Israel": 2623, "Programme": 2624, "dum": 2625, "ost": 2626, "outs": 2627, "conne": 2628, "sions": 2629, "Common": 2630, "quot": 2631, "prices": 2632, "Dec": 2633, "throughout": 2634, "referred": 2635, "instrument": 2636, "Swedish": 2637, "Applause": 2638, "potential": 2639, "circumstances": 2640, "Aud": 2641, "dri": 2642, "hy": 2643, "ering": 2644, "asy": 2645, "ley": 2646, "plans": 2647, "quate": 2648, "ously": 2649, "looking": 2650, "eli": 2651, "mal": 2652, "pid": 2653, "ederal": 2654, "associ": 2655, "forth": 2656, "content": 2657, "else": 2658, "mark": 2659, "balanced": 2660, "highlight": 2661, "establishing": 2662, "candid": 2663, "Cu": 2664, "won": 2665, "referen": 2666, "myself": 2667, "implemented": 2668, "challenge": 2669, "efficiency": 2670, "Middle": 2671, "Free": 2672, "Ple": 2673, "Uk": 2674, "aut": 2675, "dest": 2676, "unanim": 2677, "apolog": 2678, "simpli": 2679, "promoting": 2680, "ping": 2681, "When": 2682, "Finan": 2683, "subjects": 2684, "Alliance": 2685, "approval": 2686, "evening": 2687, "Ukra": 2688, "uit": 2689, "cope": 2690, "confirm": 2691, "industrial": 2692, "Fisheries": 2693, "lar": 2694, "took": 2695, "often": 2696, "vered": 2697, "exist": 2698, "tele": 2699, "acts": 2700, "corpor": 2701, "combating": 2702, "strongly": 2703, "repeat": 2704, "infrastruct": 2705, "Bo": 2706, "Energy": 2707, "hn": 2708, "intended": 2709, "draf": 2710, "value": 2711, "explanation": 2712, "explo": 2713, "Mone": 2714, "camp": 2715, "abbreviated": 2716, "grants": 2717, "ciliation": 2718, "counter": 2719, "perspe": 2720, "earli": 2721, "themselves": 2722, "election": 2723, "borders": 2724, "General": 2725, "Protection": 2726, "Please": 2727, "engen": 2728, "aving": 2729, "Charter": 2730, "bruary": 2731, "discussed": 2732, "carefully": 2733, "building": 2734, "Paper": 2735, "February": 2736, "Cam": 2737, "va": 2738, "rose": 2739, "live": 2740, "vig": 2741, "amending": 2742, "represents": 2743, "aims": 2744, "carried": 2745, "directly": 2746, "Stras": 2747, "Ban": 2748, "late": 2749, "later": 2750, "run": 2751, "sal": 2752, "analy": 2753, "itime": 2754, "tran": 2755, "asking": 2756, "Today": 2757, "Schengen": 2758, "population": 2759, "Central": 2760, "Pre": 2761, "ys": 2762, "isch": 2763, "unable": 2764, "antic": 2765, "empt": 2766, "measure": 2767, "sectors": 2768, "suring": 2769, "sense": 2770, "construction": 2771, "stead": 2772, "capacity": 2773, "Monetary": 2774, "Strasbourg": 2775, "TO": 2776, "ption": 2777, "san": 2778, "sman": 2779, "itiveness": 2780, "bear": 2781, "unfortunately": 2782, "worth": 2783, "approve": 2784, "calls": 2785, "clarify": 2786, "modern": 2787, "Bank": 2788, "Fer": 2789, "Slo": 2790, "cat": 2791, "fect": 2792, "condu": 2793, "ket": 2794, "overall": 2795, "investig": 2796, "alloc": 2797, "Au": 2798, "Her": 2799, "Lan": 2800, "WTO": 2801, "either": 2802, "mut": 2803, "ensu": 2804, "total": 2805, "press": 2806, "appropriations": 2807, "INI": 2808, "Af": 2809, "CA": 2810, "New": 2811, "Om": 2812, "ino": 2813, "altern": 2814, "imm": 2815, "nel": 2816, "prevention": 2817, "prus": 2818, "budsman": 2819, "longer": 2820, "Budgets": 2821, "completely": 2822, "origin": 2823, "Georg": 2824, "Cyprus": 2825, "forthcoming": 2826, "Afgh": 2827, "SV": 2828, "equality": 2829, "inary": 2830, "effects": 2831, "requires": 2832, "contribute": 2833, "closely": 2834, "Agriculture": 2835, "Afghan": 2836, "lantic": 2837, "iday": 2838, "sem": 2839, "allot": 2840, "developments": 2841, "confidence": 2842, "Christian": 2843, "vehicles": 2844, "Fo": 2845, "reference": 2846, "oud": 2847, "unch": 2848, "via": 2849, "forms": 2850, "labe": 2851, "Socialist": 2852, "Socialists": 2853, "Liberal": 2854, "innovation": 2855, "transit": 2856, "Ombudsman": 2857, "ially": 2858, "mand": 2859, "reserv": 2860, "dead": 2861, "applied": 2862, "crete": 2863, "animal": 2864, "structural": 2865, "conflict": 2866, "strengthening": 2867, "Bos": 2868, "Ms": 2869, "vere": 2870, "exer": 2871, "representatives": 2872, "involve": 2873, "effort": 2874, "namely": 2875, "condemn": 2876, "breaches": 2877, "Ser": 2878, "SME": 2879, "fun": 2880, "rop": 2881, "seen": 2882, "concrete": 2883, "thern": 2884, "eval": 2885, "carry": 2886, "ization": 2887, "Transport": 2888, "coordination": 2889, "spirit": 2890, "NS": 2891, "Will": 2892, "bit": 2893, "oil": 2894, "ude": 2895, "entific": 2896, "ute": 2897, "rig": 2898, "speed": 2899, "fores": 2900, "facilit": 2901, "Health": 2902, "Constitution": 2903, "independent": 2904, "Auditors": 2905, "asylum": 2906, "Ukraine": 2907, "ters": 2908, "extend": 2909, "viation": 2910, "prises": 2911, "Ital": 2912, "decide": 2913, "fied": 2914, "dealt": 2915, "competitiveness": 2916, "Leg": 2917, "rein": 2918, "atic": 2919, "assure": 2920, "deep": 2921, "unemployment": 2922, "events": 2923, "Cooperation": 2924, "drug": 2925, "earlier": 2926, "Aust": 2927, "Vi": 2928, "hind": 2929, "ster": 2930, "neighbour": 2931, "precise": 2932, "pati": 2933, "coordin": 2934, "Bulgar": 2935, "formal": 2936, "requested": 2937, "knowledge": 2938, "signed": 2939, "similar": 2940, "topical": 2941, "sensit": 2942, "status": 2943, "Bulgaria": 2944, "side": 2945, "rec": 2946, "ana": 2947, "ori": 2948, "around": 2949, "arrange": 2950, "ilities": 2951, "bey": 2952, "community": 2953, "surance": 2954, "ize": 2955, "practical": 2956, "critic": 2957, "Partnership": 2958, "cle": 2959, "suff": 2960, "extra": 2961, "partners": 2962, "model": 2963, "justment": 2964, "developed": 2965, "Budget": 2966, "staff": 2967, "creating": 2968, "Global": 2969, "Public": 2970, "ring": 2971, "scope": 2972, "targe": 2973, "ala": 2974, "ession": 2975, "roll": 2976, "forced": 2977, "sex": 2978, "hair": 2979, "acco": 2980, "accoun": 2981, "establishment": 2982, "introduction": 2983, "ugal": 2984, "Portugal": 2985, "immunity": 2986, "Your": 2987, "lot": 2988, "send": 2989, "itude": 2990, "behind": 2991, "tedly": 2992, "serve": 2993, "central": 2994, "compens": 2995, "despite": 2996, "specifically": 2997, "UEN": 2998, "schem": 2999, "announce": 3000, "commercial": 3001, "Sit": 3002, "Writ": 3003, "pas": 3004, "rural": 3005, "ensuring": 3006, "arm": 3007, "forces": 3008, "rapid": 3009, "covered": 3010, "formation": 3011, "elements": 3012, "organisation": 3013, "declaration": 3014, "efficient": 3015, "affected": 3016, "Italian": 3017, "Written": 3018, "dim": 3019, "federal": 3020, "itation": 3021, "stra": 3022, "ung": 3023, "ria": 3024, "seek": 3025, "strict": 3026, "provides": 3027, "itious": 3028, "levels": 3029, "placed": 3030, "spoken": 3031, "outside": 3032, "Financial": 3033, "High": 3034, "Of": 3035, "South": 3036, "UK": 3037, "lat": 3038, "onia": 3039, "rev": 3040, "ature": 3041, "old": 3042, "ourselves": 3043, "urally": 3044, "plic": 3045, "itional": 3046, "committed": 3047, "beginning": 3048, "defend": 3049, "observed": 3050, "emphasise": 3051, "SMEs": 3052, "Chair": 3053, "gives": 3054, "relig": 3055, "ery": 3056, "whose": 3057, "useful": 3058, "refuge": 3059, "highli": 3060, "detailed": 3061, "culture": 3062, "achieving": 3063, "Spain": 3064, "governmental": 3065, "famil": 3066, "family": 3067, "Safe": 3068, "NAT": 3069, "lu": 3070, "separ": 3071, "ols": 3072, "acqu": 3073, "met": 3074, "proposes": 3075, "Reform": 3076, "interrup": 3077, "discussing": 3078, "reducing": 3079, "talking": 3080, "persons": 3081, "animals": 3082, "recognition": 3083, "improved": 3084, "ronic": 3085, "simplif": 3086, "Many": 3087, "fa": 3088, "hour": 3089, "sound": 3090, "ene": 3091, "isms": 3092, "tocol": 3093, "except": 3094, "que": 3095, "poses": 3096, "register": 3097, "known": 3098, "setting": 3099, "seriously": 3100, "sufficient": 3101, "perspective": 3102, "Afghanistan": 3103, "Ta": 3104, "argu": 3105, "heren": 3106, "Unfortunately": 3107, "prison": 3108, "calling": 3109, "drawn": 3110, "Turk": 3111, "Greek": 3112, "sembly": 3113, "hor": 3114, "shad": 3115, "shown": 3116, "provision": 3117, "front": 3118, "ulture": 3119, "loyment": 3120, "istics": 3121, "gre": 3122, "sis": 3123, "remember": 3124, "vert": 3125, "providing": 3126, "solutions": 3127, "Framework": 3128, "improvement": 3129, "pleasure": 3130, "supply": 3131, "ambitious": 3132, "administrative": 3133, "advanta": 3134, "CAP": 3135, "Bro": 3136, "thought": 3137, "tob": 3138, "apsed": 3139, "akis": 3140, "Prodi": 3141, "product": 3142, "Internet": 3143, "medium": 3144, "facing": 3145, "recently": 3146, "continued": 3147, "renewable": 3148, "amount": 3149, "wonder": 3150, "shadow": 3151, "Zim": 3152, "texts": 3153, "almost": 3154, "stated": 3155, "abol": 3156, "bert": 3157, "price": 3158, "responsibilities": 3159, "purpose": 3160, "occas": 3161, "dangerous": 3162, "integrated": 3163, "tobacco": 3164, "fil": 3165, "rise": 3166, "allowed": 3167, "discussions": 3168, "obligations": 3169, "Fourthly": 3170, "By": 3171, "mass": 3172, "ush": 3173, "itim": 3174, "ros": 3175, "legitim": 3176, "maritime": 3177, "governance": 3178, "examine": 3179, "III": 3180, "continuing": 3181, "appreciate": 3182, "Est": 3183, "Nord": 3184, "Os": 3185, "cers": 3186, "wind": 3187, "replied": 3188, "enable": 3189, "mater": 3190, "Friday": 3191, "introduce": 3192, "immediate": 3193, "original": 3194, "experience": 3195, "alternative": 3196, "gave": 3197, "sources": 3198, "oul": 3199, "arily": 3200, "lies": 3201, "lives": 3202, "Commissioners": 3203, "sittings": 3204, "media": 3205, "scientific": 3206, "allocated": 3207, "Georgia": 3208, "Emp": 3209, "Never": 3210, "ahead": 3211, "bank": 3212, "assu": 3213, "otion": 3214, "anyone": 3215, "fruit": 3216, "dealing": 3217, "break": 3218, "procedural": 3219, "profession": 3220, "ah": 3221, "weak": 3222, "regime": 3223, "ired": 3224, "acknow": 3225, "osen": 3226, "ifications": 3227, "communications": 3228, "technology": 3229, "ologies": 3230, "properly": 3231, "enterprises": 3232, "referendum": 3233, "Mus": 3234, "Struct": 3235, "ey": 3236, "tourism": 3237, "remo": 3238, "toms": 3239, "forget": 3240, "concent": 3241, "possibility": 3242, "sian": 3243, "perfect": 3244, "ideas": 3245, "producers": 3246, "board": 3247, "Market": 3248, "medic": 3249, "brought": 3250, "lands": 3251, "Engl": 3252, "difficulties": 3253, "entirely": 3254, "warmly": 3255, "Research": 3256, "networks": 3257, "English": 3258, "Fisch": 3259, "cup": 3260, "ric": 3261, "influ": 3262, "arms": 3263, "chosen": 3264, "ception": 3265, "Deb": 3266, "Although": 3267, "regular": 3268, "sequently": 3269, "German": 3270, "history": 3271, "infrastructure": 3272, "labelling": 3273, "reservations": 3274, "dimension": 3275, "aign": 3276, "bab": 3277, "dy": 3278, "inian": 3279, "class": 3280, "Represent": 3281, "considerable": 3282, "Regional": 3283, "awa": 3284, "stock": 3285, "obviously": 3286, "sanctions": 3287, "Man": 3288, "NL": 3289, "Women": 3290, "away": 3291, "dict": 3292, "gra": 3293, "ugu": 3294, "anda": 3295, "heu": 3296, "highly": 3297, "Legal": 3298, "Mol": 3299, "home": 3300, "tw": 3301, "incorpor": 3302, "estern": 3303, "conciliation": 3304, "adap": 3305, "exact": 3306, "hood": 3307, "obtain": 3308, "Funds": 3309, "effectively": 3310, "Communist": 3311, "disasters": 3312, "sensitive": 3313, "Safety": 3314, "Ab": 3315, "eth": 3316, "rates": 3317, "sw": 3318, "ream": 3319, "iture": 3320, "exchange": 3321, "White": 3322, "commitments": 3323, "relationship": 3324, "reflect": 3325, "campaign": 3326, "Serbia": 3327, "hop": 3328, "hagen": 3329, "dep": 3330, "ulz": 3331, "abs": 3332, "olution": 3333, "presence": 3334, "former": 3335, "elected": 3336, "Schulz": 3337, "understanding": 3338, "consultation": 3339, "mechanism": 3340, "Prime": 3341, "beyond": 3342, "Situation": 3343, "aviation": 3344, "round": 3345, "usu": 3346, "ume": 3347, "instead": 3348, "ared": 3349, "union": 3350, "goes": 3351, "office": 3352, "produced": 3353, "minimum": 3354, "Verheu": 3355, "activity": 3356, "bringing": 3357, "ALDE": 3358, "Implement": 3359, "pollution": 3360, "fraud": 3361, "vereign": 3362, "arrangements": 3363, "Zimbab": 3364, "Structural": 3365, "Verheugen": 3366, "Zimbabwe": 3367, "Cro": 3368, "Ha": 3369, "San": 3370, "ga": 3371, "huge": 3372, "ped": 3373, "conference": 3374, "days": 3375, "compliance": 3376, "wording": 3377, "applic": 3378, "keeping": 3379, "Employment": 3380, "Croat": 3381, "Wat": 3382, "Year": 3383, "gender": 3384, "wr": 3385, "inced": 3386, "itable": 3387, "lect": 3388, "feed": 3389, "coheren": 3390, "Stat": 3391, "adopting": 3392, "tabling": 3393, "citizen": 3394, "practices": 3395, "Berg": 3396, "territor": 3397, "convinced": 3398, "Des": 3399, "Rural": 3400, "div": 3401, "oples": 3402, "past": 3403, "enjo": 3404, "ands": 3405, "plant": 3406, "sovereign": 3407, "fine": 3408, "Assembly": 3409, "launch": 3410, "rightly": 3411, "reforms": 3412, "benefits": 3413, "recognise": 3414, "protecting": 3415, "engers": 3416, "withdrawn": 3417, "Burma": 3418, "penalty": 3419, "mutual": 3420, "Nevertheless": 3421, "Could": 3422, "Hung": 3423, "ko": 3424, "prospe": 3425, "posal": 3426, "Membership": 3427, "intel": 3428, "Why": 3429, "company": 3430, "echn": 3431, "recovery": 3432, "demands": 3433, "Constitutional": 3434, "compensation": 3435, "Turkish": 3436, "Cz": 3437, "bad": 3438, "billion": 3439, "iro": 3440, "temp": 3441, "orm": 3442, "sea": 3443, "promotion": 3444, "willing": 3445, "parts": 3446, "Cont": 3447, "Conserv": 3448, "penditure": 3449, "truly": 3450, "leader": 3451, "adequate": 3452, "North": 3453, "function": 3454, "wrong": 3455, "Pa": 3456, "mil": 3457, "xem": 3458, "icate": 3459, "export": 3460, "exclu": 3461, "Europeans": 3462, "Information": 3463, "prim": 3464, "type": 3465, "Request": 3466, "occup": 3467, "opening": 3468, "Fundamental": 3469, "passengers": 3470, "substances": 3471, "Organ": 3472, "Luxem": 3473, "trafficking": 3474, "apologise": 3475, "Ru": 3476, "Spe": 3477, "Tourism": 3478, "peoples": 3479, "protest": 3480, "lder": 3481, "grad": 3482, "ders": 3483, "followed": 3484, "consensu": 3485, "added": 3486, "trying": 3487, "expression": 3488, "leading": 3489, "payments": 3490, "inclusion": 3491, "Adjustment": 3492, "electronic": 3493, "limited": 3494, "Cuba": 3495, "allotted": 3496, "Globalisation": 3497, "Nordic": 3498, "Kar": 3499, "got": 3500, "oration": 3501, "tock": 3502, "secure": 3503, "living": 3504, "abled": 3505, "Internal": 3506, "mobility": 3507, "eves": 3508, "invite": 3509, "fig": 3510, "foot": 3511, "valu": 3512, "shows": 3513, "ski": 3514, "Portugu": 3515, "liberalisation": 3516, "subsidi": 3517, "deserves": 3518, "families": 3519, "Dra": 3520, "Given": 3521, "Pet": 3522, "pone": 3523, "sl": 3524, "vest": 3525, "enna": 3526, "ilisation": 3527, "whom": 3528, "clus": 3529, "early": 3530, "thorough": 3531, "competitive": 3532, "technologies": 3533, "caused": 3534, "Roma": 3535, "histor": 3536, "otti": 3537, "conduct": 3538, "Representative": 3539, "Portuguese": 3540, "Copen": 3541, "Pak": 3542, "fuel": 3543, "gest": 3544, "night": 3545, "publ": 3546, "ots": 3547, "expenditure": 3548, "rian": 3549, "rend": 3550, "pressure": 3551, "manner": 3552, "descri": 3553, "succeed": 3554, "ordinary": 3555, "taxation": 3556, "trading": 3557, "Annual": 3558, "postpone": 3559, "America": 3560, "flexibility": 3561, "connection": 3562, "targets": 3563, "Czech": 3564, "Copenhagen": 3565, "Gar": 3566, "Pat": 3567, "Yu": 3568, "fare": 3569, "Those": 3570, "stay": 3571, "becoming": 3572, "idents": 3573, "oppose": 3574, "acter": 3575, "matic": 3576, "transfer": 3577, "ighting": 3578, "shortly": 3579, "visa": 3580, "membership": 3581, "clarification": 3582, "judicial": 3583, "consistent": 3584, "material": 3585, "Har": 3586, "Mob": 3587, "heart": 3588, "operate": 3589, "voice": 3590, "stake": 3591, "Communication": 3592, "critical": 3593, "mechanisms": 3594, "agencies": 3595, "attacks": 3596, "candidate": 3597, "Fischler": 3598, "Croatia": 3599, "Pakistan": 3600, "IV": 3601, "zer": 3602, "ford": 3603, "fered": 3604, "anything": 3605, "atten": 3606, "putting": 3607, "requests": 3608, "higher": 3609, "introduced": 3610, "substant": 3611, "languages": 3612, "elimin": 3613, "Debates": 3614, "consensus": 3615, "clusive": 3616, "Bureau": 3617, "diversity": 3618, "ease": 3619, "lay": 3620, "pun": 3621, "paid": 3622, "rid": 3623, "scal": 3624, "replace": 3625, "orary": 3626, "option": 3627, "reduced": 3628, "bodies": 3629, "businesses": 3630, "violations": 3631, "transparent": 3632, "USA": 3633, "Palestinian": 3634, "mandate": 3635, "passed": 3636, "Luxembourg": 3637, "subsidiarity": 3638, "La": 3639, "ecut": 3640, "ib": 3641, "sport": 3642, "uations": 3643, "inst": 3644, "ats": 3645, "aries": 3646, "reser": 3647, "stri": 3648, "cel": 3649, "tering": 3650, "perform": 3651, "perman": 3652, "inding": 3653, "Consum": 3654, "courage": 3655, "iger": 3656, "centre": 3657, "encouraging": 3658, "credit": 3659, "preparation": 3660, "block": 3661, "refugees": 3662, "Draft": 3663, "Culture": 3664, "IS": 3665, "Oral": 3666, "fers": 3667, "contrad": 3668, "imper": 3669, "intention": 3670, "party": 3671, "warding": 3672, "negative": 3673, "simple": 3674, "Sea": 3675, "Democratic": 3676, "observations": 3677, "Accord": 3678, "Moreover": 3679, "analysis": 3680, "luck": 3681, "Yugo": 3682, "Freedom": 3683, "rs": 3684, "zed": 3685, "enger": 3686, "emb": 3687, "excess": 3688, "applies": 3689, "pread": 3690, "motor": 3691, "says": 3692, "reasonable": 3693, "rejection": 3694, "consumption": 3695, "minorities": 3696, "exactly": 3697, "Petitions": 3698, "EP": 3699, "GM": 3700, "Kinno": 3701, "Mo": 3702, "Tun": 3703, "ix": 3704, "iel": 3705, "reli": 3706, "told": 3707, "arri": 3708, "exper": 3709, "police": 3710, "worked": 3711, "seeking": 3712, "series": 3713, "closer": 3714, "flood": 3715, "laws": 3716, "urgently": 3717, "growing": 3718, "insist": 3719, "Belg": 3720, "satisfactory": 3721, "exercise": 3722, "Kinnock": 3723, "Dates": 3724, "Western": 3725, "cate": 3726, "don": 3727, "gain": 3728, "ru": 3729, "tri": 3730, "entit": 3731, "deed": 3732, "poor": 3733, "raising": 3734, "Parliamentary": 3735, "Under": 3736, "Consequently": 3737, "migration": 3738, "competence": 3739, "involving": 3740, "boda": 3741, "remark": 3742, "contained": 3743, "appeal": 3744, "immigrants": 3745, "India": 3746, "stood": 3747, "ACP": 3748, "firmly": 3749, "Edu": 3750, "Swo": 3751, "lins": 3752, "rea": 3753, "utch": 3754, "contr": 3755, "ches": 3756, "vers": 3757, "prefer": 3758, "imports": 3759, "Italy": 3760, "changed": 3761, "institution": 3762, "communities": 3763, "Baron": 3764, "freedoms": 3765, "naturally": 3766, "expected": 3767, "substance": 3768, "advoc": 3769, "choice": 3770, "damage": 3771, "methods": 3772, "character": 3773, "announcement": 3774, "scale": 3775, "Swoboda": 3776, "Bon": 3777, "Dis": 3778, "Lat": 3779, "Some": 3780, "wants": 3781, "finish": 3782, "authority": 3783, "collective": 3784, "complex": 3785, "guarantees": 3786, "Russian": 3787, "easy": 3788, "Colle": 3789, "linked": 3790, "According": 3791, "Follow": 3792, "GA": 3793, "Gal": 3794, "Kore": 3795, "Serv": 3796, "Vot": 3797, "bureau": 3798, "cul": 3799, "ees": 3800, "atlantic": 3801, "entry": 3802, "secut": 3803, "secre": 3804, "estic": 3805, "fear": 3806, "disput": 3807, "diseas": 3808, "mann": 3809, "facts": 3810, "brings": 3811, "forwarded": 3812, "definition": 3813, "failure": 3814, "increasingly": 3815, "Sweden": 3816, "grounds": 3817, "Balk": 3818, "evaluation": 3819, "separate": 3820, "Motion": 3821, "Sc": 3822, "binding": 3823, "ming": 3824, "uff": 3825, "enn": 3826, "icts": 3827, "stant": 3828, "wee": 3829, "advert": 3830, "imately": 3831, "taint": 3832, "aper": 3833, "sized": 3834, "proposing": 3835, "lla": 3836, "Confederal": 3837, "welcomes": 3838, "considerations": 3839, "compli": 3840, "everybody": 3841, "representative": 3842, "terrorist": 3843, "African": 3844, "satisfied": 3845, "listened": 3846, "Decisions": 3847, "Food": 3848, "involvement": 3849, "Baroness": 3850, "diseases": 3851, "Ash": 3852, "Bl": 3853, "Patten": 3854, "RE": 3855, "Sing": 3856, "TE": 3857, "mic": 3858, "ufact": 3859, "codif": 3860, "max": 3861, "contro": 3862, "disease": 3863, "certaint": 3864, "limits": 3865, "globalisation": 3866, "controls": 3867, "popul": 3868, "burg": 3869, "equip": 3870, "territory": 3871, "Maced": 3872, "valuable": 3873, "weeks": 3874, "FI": 3875, "King": 3876, "Val": 3877, "gence": 3878, "mas": 3879, "ona": 3880, "revision": 3881, "ened": 3882, "proport": 3883, "compe": 3884, "attitude": 3885, "compat": 3886, "desire": 3887, "currency": 3888, "technological": 3889, "regulatory": 3890, "risks": 3891, "untary": 3892, "iversal": 3893, "tackle": 3894, "modified": 3895, "resolve": 3896, "determination": 3897, "Author": 3898, "El": 3899, "fighting": 3900, "smo": 3901, "resume": 3902, "ilst": 3903, "ilateral": 3904, "concept": 3905, "log": 3906, "comply": 3907, "extent": 3908, "goal": 3909, "consol": 3910, "travel": 3911, "condition": 3912, "employed": 3913, "organised": 3914, "personally": 3915, "parliaments": 3916, "deliver": 3917, "Germany": 3918, "announced": 3919, "emergency": 3920, "prisoners": 3921, "enjoy": 3922, "Control": 3923, "Di": 3924, "Iz": 3925, "ki": 3926, "wat": 3927, "sets": 3928, "ivity": 3929, "otherwise": 3930, "typ": 3931, "element": 3932, "pension": 3933, "wholehear": 3934, "forcement": 3935, "directives": 3936, "happened": 3937, "Education": 3938, "CF": 3939, "Kenna": 3940, "Lam": 3941, "tur": 3942, "zone": 3943, "ongoing": 3944, "beef": 3945, "conta": 3946, "plom": 3947, "situations": 3948, "submission": 3949, "Forwarding": 3950, "letter": 3951, "surpr": 3952, "ized": 3953, "Direct": 3954, "suggestion": 3955, "McKenna": 3956, "Indust": 3957, "ruption": 3958, "System": 3959, "sexual": 3960, "Consumer": 3961, "contradict": 3962, "categ": 3963, "consolid": 3964, "Blo": 3965, "EEC": 3966, "Mer": 3967, "Plan": 3968, "lin": 3969, "path": 3970, "sha": 3971, "uis": 3972, "zo": 3973, "ano": 3974, "ening": 3975, "tot": 3976, "arch": 3977, "quier": 3978, "sole": 3979, "apons": 3980, "disappoint": 3981, "earth": 3982, "attempt": 3983, "planning": 3984, "factors": 3985, "considering": 3986, "includes": 3987, "Perhaps": 3988, "American": 3989, "Moroc": 3990, "Ferre": 3991, "permanent": 3992, "entitled": 3993, "Macedonia": 3994, "Izquier": 3995, "Izquierdo": 3996, "Bend": 3997, "Every": 3998, "Would": 3999, "none": 4000, "ya": 4001, "eration": 4002, "aman": 4003, "urgency": 4004, "debating": 4005, "proceedings": 4006, "differences": 4007, "concluded": 4008, "harm": 4009, "independence": 4010, "administration": 4011, "designed": 4012, "influence": 4013, "Mobilisation": 4014, "DA": 4015, "EM": 4016, "dign": 4017, "mur": 4018, "win": 4019, "reiter": 4020, "atell": 4021, "uni": 4022, "rac": 4023, "acio": 4024, "codecision": 4025, "pression": 4026, "legally": 4027, "relates": 4028, "transl": 4029, "manufact": 4030, "produce": 4031, "symp": 4032, "planned": 4033, "interested": 4034, "Again": 4035, "contributed": 4036, "generally": 4037, "scho": 4038, "harmonisation": 4039, "study": 4040, "satisfaction": 4041, "drugs": 4042, "Brok": 4043, "occasion": 4044, "Day": 4045, "Fif": 4046, "Gra": 4047, "Niger": 4048, "sort": 4049, "uz": 4050, "stac": 4051, "defic": 4052, "near": 4053, "elapsed": 4054, "laid": 4055, "forest": 4056, "effectiveness": 4057, "Allow": 4058, "opinions": 4059, "faced": 4060, "passenger": 4061, "diplom": 4062, "intends": 4063, "Colom": 4064, "falls": 4065, "facilitate": 4066, "recital": 4067, "excessive": 4068, "CNS": 4069, "Ky": 4070, "Wall": 4071, "cop": 4072, "graph": 4073, "iet": 4074, "rich": 4075, "treaty": 4076, "enorm": 4077, "urban": 4078, "qua": 4079, "abilities": 4080, "moving": 4081, "permit": 4082, "timely": 4083, "eva": 4084, "Protocol": 4085, "customs": 4086, "continues": 4087, "obstac": 4088, "expressing": 4089, "allowing": 4090, "drawing": 4091, "sincerely": 4092, "requirement": 4093, "Ministers": 4094, "corrected": 4095, "Maes": 4096, "spoke": 4097, "recorded": 4098, "deadline": 4099, "exclusion": 4100, "Ashton": 4101, "totally": 4102, "Egy": 4103, "Mill": 4104, "kill": 4105, "pie": 4106, "vak": 4107, "yn": 4108, "rey": 4109, "vey": 4110, "iders": 4111, "conver": 4112, "merely": 4113, "thereby": 4114, "Indeed": 4115, "preser": 4116, "understood": 4117, "getting": 4118, "minister": 4119, "attend": 4120, "initial": 4121, "sincere": 4122, "improvements": 4123, "distribution": 4124, "wait": 4125, "holding": 4126, "credibility": 4127, "monetary": 4128, "started": 4129, "chairman": 4130, "exploitation": 4131, "scheme": 4132, "perfectly": 4133, "Kingdom": 4134, "Egypt": 4135, "Ano": 4136, "Cr": 4137, "Other": 4138, "VAT": 4139, "af": 4140, "bes": 4141, "bed": 4142, "came": 4143, "eight": 4144, "ito": 4145, "mem": 4146, "sted": 4147, "bel": 4148, "ola": 4149, "universal": 4150, "teed": 4151, "complain": 4152, "auto": 4153, "contra": 4154, "space": 4155, "realistic": 4156, "Cohn": 4157, "guaranteed": 4158, "felt": 4159, "failed": 4160, "obliged": 4161, "Palacio": 4162, "ratification": 4163, "Prepar": 4164, "religious": 4165, "Moldo": 4166, "Watson": 4167, "Despite": 4168, "micro": 4169, "Bendit": 4170, "Civ": 4171, "Danish": 4172, "Mont": 4173, "Pact": 4174, "Pack": 4175, "SP": 4176, "rees": 4177, "atta": 4178, "isive": 4179, "entially": 4180, "ari": 4181, "iry": 4182, "opho": 4183, "worry": 4184, "Associ": 4185, "confir": 4186, "competent": 4187, "reaching": 4188, "visit": 4189, "visory": 4190, "crimes": 4191, "leaders": 4192, "recognised": 4193, "shared": 4194, "generation": 4195, "waiver": 4196, "structure": 4197, "preparations": 4198, "supervision": 4199, "Martin": 4200, "drafting": 4201, "advertising": 4202, "Single": 4203, "Authority": 4204, "Another": 4205, "AI": 4206, "Act": 4207, "DS": 4208, "Having": 4209, "Over": 4210, "Sh": 4211, "sc": 4212, "constant": 4213, "opt": 4214, "mob": 4215, "genet": 4216, "learn": 4217, "purposes": 4218, "Secre": 4219, "Very": 4220, "causes": 4221, "cardini": 4222, "release": 4223, "consult": 4224, "minority": 4225, "Sloven": 4226, "Muscardini": 4227, "substantial": 4228, "Balkans": 4229, "stedt": 4230, "Association": 4231, "Hence": 4232, "Hel": 4233, "Texts": 4234, "ball": 4235, "hom": 4236, "ka": 4237, "lined": 4238, "pan": 4239, "pens": 4240, "err": 4241, "resto": 4242, "comed": 4243, "extension": 4244, "correspond": 4245, "paragraphs": 4246, "Barcel": 4247, "truth": 4248, "payment": 4249, "participate": 4250, "sched": 4251, "amongst": 4252, "infring": 4253, "flexible": 4254, "catch": 4255, "professional": 4256, "maximum": 4257, "dignity": 4258, "Civil": 4259, "Barcelona": 4260, "Asia": 4261, "Eas": 4262, "Labour": 4263, "Stock": 4264, "cou": 4265, "nations": 4266, "wine": 4267, "ende": 4268, "execut": 4269, "team": 4270, "outstanding": 4271, "coast": 4272, "finance": 4273, "Recommend": 4274, "news": 4275, "nationals": 4276, "believes": 4277, "mainly": 4278, "applause": 4279, "COS": 4280, "bilateral": 4281, "farming": 4282, "Collins": 4283, "nevertheless": 4284, "subsidies": 4285, "Slovak": 4286, "precisely": 4287, "territorial": 4288, "Tunis": 4289, "Korea": 4290, "certainty": 4291, "Morocco": 4292, "Moldova": 4293, "Eastern": 4294, "Che": 4295, "Dav": 4296, "Ob": 4297, "gall": 4298, "gree": 4299, "phas": 4300, "sper": 4301, "alone": 4302, "ased": 4303, "chance": 4304, "exception": 4305, "meant": 4306, "evidence": 4307, "iann": 4308, "boost": 4309, "meetings": 4310, "fields": 4311, "addressing": 4312, "preventing": 4313, "statistics": 4314, "Centre": 4315, "appears": 4316, "resolved": 4317, "accordingly": 4318, "restrictions": 4319, "NATO": 4320, "absence": 4321, "mobile": 4322, "Dutch": 4323, "Pur": 4324, "Treat": 4325, "nd": 4326, "nia": 4327, "von": 4328, "remove": 4329, "income": 4330, "envis": 4331, "iscal": 4332, "respe": 4333, "lez": 4334, "beha": 4335, "seas": 4336, "sugar": 4337, "welfare": 4338, "welcomed": 4339, "attemp": 4340, "signal": 4341, "occur": 4342, "pursue": 4343, "topic": 4344, "emphasis": 4345, "preparing": 4346, "advance": 4347, "Decision": 4348, "hypo": 4349, "hours": 4350, "usual": 4351, "Organisation": 4352, "Latin": 4353, "respective": 4354, "Sud": 4355, "fill": 4356, "hil": 4357, "nation": 4358, "scr": 4359, "ws": 4360, "rever": 4361, "anen": 4362, "aside": 4363, "impl": 4364, "ury": 4365, "tered": 4366, "neither": 4367, "bett": 4368, "justified": 4369, "managed": 4370, "productive": 4371, "court": 4372, "ograph": 4373, "referral": 4374, "Poland": 4375, "Corbett": 4376, "Roth": 4377, "traditional": 4378, "voluntary": 4379, "suffering": 4380, "acquis": 4381, "exceptional": 4382, "Statute": 4383, "Treaties": 4384, "Cast": 4385, "ET": 4386, "Rap": 4387, "SL": 4388, "Ti": 4389, "fif": 4390, "reaction": 4391, "insurance": 4392, "itage": 4393, "aring": 4394, "prob": 4395, "prosper": 4396, "impose": 4397, "exc": 4398, "Europol": 4399, "riers": 4400, "spect": 4401, "Invest": 4402, "preced": 4403, "stands": 4404, "employees": 4405, "respected": 4406, "Statement": 4407, "defined": 4408, "Christmas": 4409, "duties": 4410, "burden": 4411, "granted": 4412, "existence": 4413, "arguments": 4414, "prospects": 4415, "wholeheartedly": 4416, "Tibet": 4417, "Cap": 4418, "DP": 4419, "Dr": 4420, "Dim": 4421, "ED": 4422, "Oomen": 4423, "Sar": 4424, "mill": 4425, "retain": 4426, "iling": 4427, "ched": 4428, "ource": 4429, "agic": 4430, "agrees": 4431, "lob": 4432, "exclusive": 4433, "optim": 4434, "extended": 4435, "iff": 4436, "odiversity": 4437, "viour": 4438, "seeks": 4439, "Amster": 4440, "decisive": 4441, "continent": 4442, "fires": 4443, "petition": 4444, "Alger": 4445, "deals": 4446, "inade": 4447, "iversary": 4448, "hearing": 4449, "ijten": 4450, "Transfers": 4451, "happening": 4452, "equally": 4453, "conflicts": 4454, "deserve": 4455, "unanimously": 4456, "patients": 4457, "Budgetary": 4458, "Ruijten": 4459, "contrary": 4460, "Recommendation": 4461, "gallery": 4462, "Amsterdam": 4463, "Me": 4464, "nic": 4465, "pi": 4466, "vul": 4467, "ang": 4468, "ancing": 4469, "utin": 4470, "estim": 4471, "estors": 4472, "debt": 4473, "mobil": 4474, "Qua": 4475, "operators": 4476, "observe": 4477, "Chan": 4478, "suspend": 4479, "greatest": 4480, "sson": 4481, "External": 4482, "introducing": 4483, "correctly": 4484, "enhouse": 4485, "demonstrated": 4486, "starting": 4487, "target": 4488, "interrupted": 4489, "greenhouse": 4490, "codified": 4491, "AIDS": 4492, "behaviour": 4493, "vulner": 4494, "Bow": 4495, "Sj": 4496, "bro": 4497, "fiscal": 4498, "hun": 4499, "lab": 4500, "ox": 4501, "slight": 4502, "outhern": 4503, "weapons": 4504, "imag": 4505, "agency": 4506, "exists": 4507, "teach": 4508, "clause": 4509, "ift": 4510, "ival": 4511, "goals": 4512, "disagree": 4513, "operating": 4514, "politic": 4515, "owski": 4516, "While": 4517, "thinking": 4518, "plants": 4519, "incent": 4520, "carbon": 4521, "taxes": 4522, "investments": 4523, "suggestions": 4524, "Solidarity": 4525, "associated": 4526, "vigil": 4527, "orient": 4528, "criticism": 4529, "eye": 4530, "milk": 4531, "figures": 4532, "equipment": 4533, "Nigeria": 4534, "Dan": 4535, "Ev": 4536, "bor": 4537, "bound": 4538, "iers": 4539, "mun": 4540, "toler": 4541, "astr": 4542, "illi": 4543, "embar": 4544, "lost": 4545, "urt": 4546, "unfair": 4547, "meat": 4548, "app": 4549, "partner": 4550, "contract": 4551, "Congo": 4552, "transatlantic": 4553, "Alban": 4554, "anniversary": 4555, "seconds": 4556, "artic": 4557, "fisher": 4558, "Rojo": 4559, "postpon": 4560, "created": 4561, "indicated": 4562, "interpreters": 4563, "Poet": 4564, "Chairman": 4565, "Implementation": 4566, "temporary": 4567, "endeavour": 4568, "Citiz": 4569, "Hol": 4570, "Nat": 4571, "Pri": 4572, "Red": 4573, "Sup": 4574, "Six": 4575, "bol": 4576, "fle": 4577, "hib": 4578, "lam": 4579, "pill": 4580, "oning": 4581, "orate": 4582, "stream": 4583, "dev": 4584, "uls": 4585, "quiry": 4586, "antini": 4587, "heav": 4588, "sym": 4589, "democrat": 4590, "heritage": 4591, "helped": 4592, "numer": 4593, "vene": 4594, "athy": 4595, "Like": 4596, "Without": 4597, "skill": 4598, "advice": 4599, "dependent": 4600, "constitutional": 4601, "strategies": 4602, "Baltic": 4603, "accident": 4604, "destro": 4605, "legitimate": 4606, "applicable": 4607, "coherent": 4608, "floods": 4609, "enormous": 4610, "Sudan": 4611, "Poettering": 4612, "Bi": 4613, "EA": 4614, "Has": 4615, "Home": 4616, "IO": 4617, "Jos": 4618, "National": 4619, "cast": 4620, "flow": 4621, "nom": 4622, "ties": 4623, "anos": 4624, "tom": 4625, "ici": 4626, "dele": 4627, "limin": 4628, "imposed": 4629, "ague": 4630, "Well": 4631, "wished": 4632, "sometimes": 4633, "attle": 4634, "greatly": 4635, "compuls": 4636, "Intergovernmental": 4637, "warning": 4638, "holders": 4639, "referring": 4640, "caution": 4641, "missible": 4642, "ifying": 4643, "sustainability": 4644, "awareness": 4645, "Area": 4646, "listening": 4647, "constitute": 4648, "enhance": 4649, "interpretation": 4650, "Stability": 4651, "Bosnia": 4652, "Austria": 4653, "dynam": 4654, "stocks": 4655, "sovereignty": 4656, "Following": 4657, "manufacture": 4658, "contracts": 4659, "compulsory": 4660, "Ca": 4661, "Crow": 4662, "From": 4663, "Mann": 4664, "Nice": 4665, "OF": 4666, "Sim": 4667, "city": 4668, "censure": 4669, "mine": 4670, "sla": 4671, "tend": 4672, "oni": 4673, "enforcement": 4674, "roots": 4675, "restruct": 4676, "mental": 4677, "belong": 4678, "complic": 4679, "traged": 4680, "presenting": 4681, "Rel": 4682, "undertaken": 4683, "politics": 4684, "economies": 4685, "factor": 4686, "negotiating": 4687, "Cohesion": 4688, "biodiversity": 4689, "observation": 4690, "normal": 4691, "repeated": 4692, "television": 4693, "concentrate": 4694, "functioning": 4695, "historic": 4696, "Voting": 4697, "Industry": 4698, "reiterate": 4699, "convergence": 4700, "ophobia": 4701, "probably": 4702, "vulnerable": 4703, "EX": 4704, "Sign": 4705, "Tim": 4706, "paper": 4707, "ration": 4708, "slow": 4709, "repre": 4710, "inese": 4711, "anian": 4712, "encies": 4713, "ati": 4714, "ale": 4715, "ali": 4716, "abuse": 4717, "compar": 4718, "Institut": 4719, "works": 4720, "formul": 4721, "Proposal": 4722, "operational": 4723, "fran": 4724, "Chinese": 4725, "guaranteeing": 4726, "applying": 4727, "quotas": 4728, "coordinated": 4729, "advantage": 4730, "imperial": 4731, "piece": 4732, "fishermen": 4733, "Citizens": 4734, "Crowley": 4735, "reprene": 4736, "Bas": 4737, "Bus": 4738, "BSE": 4739, "List": 4740, "Mi": 4741, "Ros": 4742, "Tit": 4743, "Wal": 4744, "ecol": 4745, "las": 4746, "mstr": 4747, "trial": 4748, "wit": 4749, "thous": 4750, "react": 4751, "outer": 4752, "oll": 4753, "atever": 4754, "uled": 4755, "users": 4756, "dos": 4757, "actual": 4758, "changing": 4759, "ribute": 4760, "beings": 4761, "settle": 4762, "remaining": 4763, "Polish": 4764, "ventions": 4765, "tonight": 4766, "demonstrate": 4767, "meaning": 4768, "Malmstr": 4769, "friends": 4770, "counterfe": 4771, "accounts": 4772, "highlights": 4773, "acknowledge": 4774, "types": 4775, "Cres": 4776, "Climate": 4777, "Jap": 4778, "Lith": 4779, "Mu": 4780, "VO": 4781, "hne": 4782, "mac": 4783, "vation": 4784, "yle": 4785, "stres": 4786, "section": 4787, "kept": 4788, "teen": 4789, "posing": 4790, "urely": 4791, "items": 4792, "avanos": 4793, "disabled": 4794, "sake": 4795, "tract": 4796, "Any": 4797, "Belder": 4798, "Alavanos": 4799, "ocra": 4800, "healthy": 4801, "talks": 4802, "Democra": 4803, "applaud": 4804, "Maat": 4805, "expectations": 4806, "significantly": 4807, "obligation": 4808, "actively": 4809, "Guine": 4810, "accidents": 4811, "worthy": 4812, "assume": 4813, "copy": 4814, "infringe": 4815, "couple": 4816, "Algeria": 4817, "outermost": 4818, "Crespo": 4819, "Japan": 4820, "Lithu": 4821, "Alex": 4822, "CS": 4823, "Dup": 4824, "Even": 4825, "Lul": 4826, "eg": 4827, "nen": 4828, "sad": 4829, "spl": 4830, "ti": 4831, "usion": 4832, "thy": 4833, "entreprene": 4834, "icted": 4835, "lif": 4836, "ambi": 4837, "chi": 4838, "aga": 4839, "unless": 4840, "Paragraph": 4841, "debated": 4842, "tragic": 4843, "ishing": 4844, "aking": 4845, "prev": 4846, "takings": 4847, "pointed": 4848, "consci": 4849, "Support": 4850, "politically": 4851, "Declar": 4852, "respects": 4853, "successfully": 4854, "holm": 4855, "sensible": 4856, "Atlantic": 4857, "PLA": 4858, "waiting": 4859, "places": 4860, "fruitful": 4861, "acknowled": 4862, "worrying": 4863, "Tunisia": 4864, "pillar": 4865, "Dupuis": 4866, "Eur": 4867, "Gon": 4868, "Such": 4869, "VI": 4870, "Who": 4871, "han": 4872, "orous": 4873, "erad": 4874, "error": 4875, "resist": 4876, "impossible": 4877, "este": 4878, "ney": 4879, "ishment": 4880, "pring": 4881, "fulfil": 4882, "Progress": 4883, "marine": 4884, "corruption": 4885, "somewhat": 4886, "operations": 4887, "assent": 4888, "mines": 4889, "summ": 4890, "qualified": 4891, "authors": 4892, "secondly": 4893, "journal": 4894, "chnya": 4895, "successive": 4896, "taxpay": 4897, "lingu": 4898, "patent": 4899, "Resolution": 4900, "Israeli": 4901, "strengthened": 4902, "appointment": 4903, "determined": 4904, "unanimous": 4905, "telecommunications": 4906, "schemes": 4907, "straight": 4908, "NATIO": 4909, "await": 4910, "hopes": 4911, "leadership": 4912, "ennium": 4913, "quake": 4914, "afford": 4915, "Chechnya": 4916, "EXPLA": 4917, "EXPLANATIO": 4918, "Air": 4919, "Sac": 4920, "Tan": 4921, "Two": 4922, "affairs": 4923, "gone": 4924, "ked": 4925, "wan": 4926, "inting": 4927, "stuff": 4928, "emical": 4929, "lose": 4930, "tel": 4931, "geograph": 4932, "ifies": 4933, "timetable": 4934, "overcome": 4935, "protected": 4936, "objection": 4937, "rejects": 4938, "helping": 4939, "Leban": 4940, "peaceful": 4941, "definite": 4942, "property": 4943, "McC": 4944, "electric": 4945, "maintaining": 4946, "destru": 4947, "latest": 4948, "highlighted": 4949, "EMU": 4950, "racism": 4951, "inadequate": 4952, "Evans": 4953, "numerous": 4954, "Lulling": 4955, "Cas": 4956, "Fab": 4957, "Seven": 4958, "Techn": 4959, "frequ": 4960, "hr": 4961, "house": 4962, "leng": 4963, "map": 4964, "room": 4965, "veal": 4966, "dez": 4967, "lying": 4968, "convey": 4969, "unnecessary": 4970, "endar": 4971, "abst": 4972, "accur": 4973, "extending": 4974, "cohol": 4975, "aug": 4976, "Congratul": 4977, "producing": 4978, "budgets": 4979, "Only": 4980, "governing": 4981, "solve": 4982, "completed": 4983, "Liik": 4984, "careful": 4985, "COD": 4986, "played": 4987, "dram": 4988, "discrimin": 4989, "constitution": 4990, "deaths": 4991, "innovative": 4992, "blood": 4993, "transitional": 4994, "Hungarian": 4995, "primarily": 4996, "performance": 4997, "categor": 4998, "Monti": 4999, "implications": 5000, "Quaestors": 5001, "liminary": 5002, "dossi": 5003, "Guinea": 5004, "Gonz": 5005, "Congratulations": 5006, "During": 5007, "Future": 5008, "Que": 5009, "SC": 5010, "Sil": 5011, "ded": 5012, "ets": 5013, "eco": 5014, "gue": 5015, "ham": 5016, "ndez": 5017, "xed": 5018, "offered": 5019, "beiro": 5020, "suitable": 5021, "nock": 5022, "grass": 5023, "arder": 5024, "sibly": 5025, "Inc": 5026, "ffirm": 5027, "auer": 5028, "moral": 5029, "learning": 5030, "summar": 5031, "sections": 5032, "processes": 5033, "craft": 5034, "examples": 5035, "examined": 5036, "Youth": 5037, "Regard": 5038, "Code": 5039, "Ribeiro": 5040, "terrorists": 5041, "biot": 5042, "Accession": 5043, "Monday": 5044, "radical": 5045, "transition": 5046, "suffer": 5047, "Haarder": 5048, "published": 5049, "contact": 5050, "earthquake": 5051, "sympathy": 5052, "diplomatic": 5053, "reyer": 5054, "restore": 5055, "restructuring": 5056, "Signature": 5057, "Declaration": 5058, "Bra": 5059, "Fal": 5060, "Flo": 5061, "Gaz": 5062, "Rad": 5063, "afra": 5064, "dor": 5065, "dig": 5066, "hum": 5067, "kop": 5068, "lic": 5069, "tribute": 5070, "alcohol": 5071, "enty": 5072, "stan": 5073, "whatever": 5074, "quant": 5075, "nez": 5076, "therlands": 5077, "cooperate": 5078, "iculty": 5079, "offers": 5080, "undertakings": 5081, "collab": 5082, "refers": 5083, "medical": 5084, "sessions": 5085, "background": 5086, "promises": 5087, "involves": 5088, "difficulty": 5089, "stronger": 5090, "facilities": 5091, "affecting": 5092, "Netherlands": 5093, "railway": 5094, "studies": 5095, "tari": 5096, "recast": 5097, "strictly": 5098, "controver": 5099, "compatible": 5100, "Fifthly": 5101, "obstacles": 5102, "Crim": 5103, "confirmed": 5104, "iannual": 5105, "Albania": 5106, "franca": 5107, "Liikanen": 5108, "afraid": 5109, "Ara": 5110, "Bol": 5111, "EI": 5112, "Sala": 5113, "VIII": 5114, "gap": 5115, "hl": 5116, "tu": 5117, "vens": 5118, "za": 5119, "zy": 5120, "zen": 5121, "onom": 5122, "ondo": 5123, "rez": 5124, "enab": 5125, "enced": 5126, "oub": 5127, "stim": 5128, "stance": 5129, "conserv": 5130, "united": 5131, "youth": 5132, "accus": 5133, "extensive": 5134, "ards": 5135, "claim": 5136, "istical": 5137, "bles": 5138, "preliminary": 5139, "save": 5140, "justify": 5141, "airports": 5142, "ships": 5143, "Because": 5144, "vessels": 5145, "realise": 5146, "helpful": 5147, "negotiation": 5148, "honest": 5149, "John": 5150, "Medina": 5151, "broadly": 5152, "lapse": 5153, "tests": 5154, "judg": 5155, "depends": 5156, "pollut": 5157, "Goe": 5158, "driving": 5159, "Banotti": 5160, "extraordinary": 5161, "simplification": 5162, "Santer": 5163, "Garc": 5164, "postponed": 5165, "VOTE": 5166, "macro": 5167, "linguistic": 5168, "dossier": 5169, "Salafranca": 5170, "Mich": 5171, "Morg": 5172, "bir": 5173, "cof": 5174, "ior": 5175, "je": 5176, "inspe": 5177, "enlar": 5178, "oulos": 5179, "tools": 5180, "itt": 5181, "ico": 5182, "utmost": 5183, "code": 5184, "closure": 5185, "spent": 5186, "considers": 5187, "island": 5188, "phen": 5189, "phone": 5190, "difference": 5191, "highest": 5192, "surve": 5193, "represented": 5194, "industries": 5195, "valid": 5196, "Liby": 5197, "chez": 5198, "generations": 5199, "structures": 5200, "entirety": 5201, "placing": 5202, "Indones": 5203, "covers": 5204, "science": 5205, "sufficiently": 5206, "Solana": 5207, "Hungary": 5208, "Conservatives": 5209, "GMOs": 5210, "competen": 5211, "Wallstr": 5212, "Secretary": 5213, "scrutin": 5214, "ecolog": 5215, "EXPLANATIONS": 5216, "Morgantini": 5217, "bing": 5218, "nchez": 5219, "tin": 5220, "ye": 5221, "replies": 5222, "alle": 5223, "tool": 5224, "ofuel": 5225, "lection": 5226, "Thus": 5227, "Thors": 5228, "protocol": 5229, "convict": 5230, "kell": 5231, "whilst": 5232, "emann": 5233, "areport": 5234, "alling": 5235, "noise": 5236, "anticip": 5237, "outlined": 5238, "commission": 5239, "irect": 5240, "proud": 5241, "Review": 5242, "etnam": 5243, "someone": 5244, "healthcare": 5245, "negotiated": 5246, "Schmid": 5247, "capable": 5248, "strength": 5249, "mistake": 5250, "deliber": 5251, "fortunate": 5252, "Sakell": 5253, "reflects": 5254, "barriers": 5255, "granting": 5256, "investigation": 5257, "Langen": 5258, "Vietnam": 5259, "berties": 5260, "removed": 5261, "lectual": 5262, "slav": 5263, "proportion": 5264, "shares": 5265, "Preparation": 5266, "ariou": 5267, "Stockholm": 5268, "phase": 5269, "stimul": 5270, "birth": 5271, "phenomen": 5272, "Sakellariou": 5273, "Aid": 5274, "Cat": 5275, "Def": 5276, "ER": 5277, "Mult": 5278, "Meas": 5279, "bs": 5280, "cke": 5281, "crop": 5282, "fire": 5283, "sides": 5284, "reven": 5285, "iss": 5286, "oughts": 5287, "Then": 5288, "dear": 5289, "constit": 5290, "convention": 5291, "lifer": 5292, "ames": 5293, "chemical": 5294, "exceed": 5295, "exports": 5296, "terri": 5297, "comings": 5298, "commod": 5299, "host": 5300, "intervene": 5301, "favourable": 5302, "spite": 5303, "decent": 5304, "adding": 5305, "shortcomings": 5306, "pending": 5307, "distin": 5308, "cars": 5309, "Armen": 5310, "resulting": 5311, "identified": 5312, "fourth": 5313, "significance": 5314, "NGOs": 5315, "Sepp": 5316, "versions": 5317, "individuals": 5318, "allocation": 5319, "atorium": 5320, "charges": 5321, "curement": 5322, "association": 5323, "Cambod": 5324, "obtained": 5325, "Services": 5326, "harmful": 5327, "politicians": 5328, "complicated": 5329, "witness": 5330, "Alexand": 5331, "Regarding": 5332, "Falcon": 5333, "dorf": 5334, "Criminal": 5335, "constitu": 5336, "Cer": 5337, "Eth": 5338, "Equal": 5339, "Mand": 5340, "Mir": 5341, "Not": 5342, "None": 5343, "SA": 5344, "Yet": 5345, "bra": 5346, "nar": 5347, "sav": 5348, "tention": 5349, "inations": 5350, "stable": 5351, "beg": 5352, "depart": 5353, "wealth": 5354, "admit": 5355, "agues": 5356, "pointing": 5357, "sho": 5358, "ountain": 5359, "apart": 5360, "worse": 5361, "mother": 5362, "undred": 5363, "closing": 5364, "sphere": 5365, "privi": 5366, "ultimately": 5367, "marketing": 5368, "igno": 5369, "Regions": 5370, "pays": 5371, "Polit": 5372, "defending": 5373, "parent": 5374, "playing": 5375, "expand": 5376, "focused": 5377, "profit": 5378, "dependence": 5379, "sentence": 5380, "Fourth": 5381, "Syria": 5382, "Good": 5383, "officials": 5384, "genuinely": 5385, "forestry": 5386, "intellectual": 5387, "Special": 5388, "described": 5389, "Yugosla": 5390, "expert": 5391, "Belgian": 5392, "Colleagues": 5393, "memory": 5394, "Slovakia": 5395, "tragedy": 5396, "prevail": 5397, "summary": 5398, "stuffs": 5399, "Gaza": 5400, "tariat": 5401, "competences": 5402, "Falconer": 5403, "Cus": 5404, "Fon": 5405, "Niel": 5406, "Tom": 5407, "fast": 5408, "hundred": 5409, "keste": 5410, "oto": 5411, "scand": 5412, "spread": 5413, "voc": 5414, "vina": 5415, "zu": 5416, "thres": 5417, "atically": 5418, "isa": 5419, "ilt": 5420, "pel": 5421, "liability": 5422, "ado": 5423, "logy": 5424, "noye": 5425, "intens": 5426, "clarity": 5427, "augh": 5428, "proved": 5429, "indirect": 5430, "issued": 5431, "undoub": 5432, "condol": 5433, "book": 5434, "qualifications": 5435, "centres": 5436, "openness": 5437, "textile": 5438, "previously": 5439, "applications": 5440, "tackling": 5441, "eastern": 5442, "consequently": 5443, "irable": 5444, "domestic": 5445, "Northern": 5446, "tasks": 5447, "Lannoye": 5448, "reinforce": 5449, "revised": 5450, "plicit": 5451, "abolition": 5452, "legitimacy": 5453, "incorporated": 5454, "swift": 5455, "launched": 5456, "Against": 5457, "school": 5458, "Castro": 5459, "Investment": 5460, "millions": 5461, "Titley": 5462, "Tannock": 5463, "Bolkeste": 5464, "Miranda": 5465, "threshold": 5466, "undoubtedly": 5467, "Bolkestein": 5468, "Eri": 5469, "Fra": 5470, "Hu": 5471, "IP": 5472, "Rod": 5473, "Sust": 5474, "dish": 5475, "hm": 5476, "push": 5477, "rant": 5478, "onas": 5479, "reconstruction": 5480, "inated": 5481, "atures": 5482, "stor": 5483, "seat": 5484, "prohib": 5485, "suf": 5486, "ada": 5487, "tability": 5488, "location": 5489, "ull": 5490, "plural": 5491, "ively": 5492, "essentially": 5493, "belief": 5494, "approx": 5495, "century": 5496, "Dell": 5497, "examining": 5498, "Front": 5499, "finding": 5500, "biofuel": 5501, "define": 5502, "Work": 5503, "Ney": 5504, "Neighbour": 5505, "threats": 5506, "links": 5507, "appreciation": 5508, "enhanced": 5509, "demonstrates": 5510, "ratified": 5511, "friendly": 5512, "Palestine": 5513, "sales": 5514, "deeply": 5515, "Austrian": 5516, "religion": 5517, "assured": 5518, "medicines": 5519, "medicinal": 5520, "citizenship": 5521, "kov": 5522, "football": 5523, "Yugoslav": 5524, "disappointed": 5525, "uzzo": 5526, "Colombia": 5527, "scheduled": 5528, "thousands": 5529, "Lithuania": 5530, "electricity": 5531, "liferation": 5532, "Cambodia": 5533, "Yugoslavia": 5534, "BG": 5535, "EPL": 5536, "Fig": 5537, "Ice": 5538, "Kur": 5539, "Law": 5540, "Lapsed": 5541, "Na": 5542, "Object": 5543, "Rome": 5544, "efe": 5545, "rational": 5546, "tou": 5547, "trend": 5548, "wides": 5549, "zil": 5550, "zue": 5551, "detention": 5552, "procurement": 5553, "web": 5554, "illance": 5555, "cha": 5556, "exclud": 5557, "raw": 5558, "iring": 5559, "tega": 5560, "aband": 5561, "tingu": 5562, "likely": 5563, "outline": 5564, "cancer": 5565, "disposal": 5566, "distingu": 5567, "undertake": 5568, "spending": 5569, "accepts": 5570, "lessons": 5571, "confident": 5572, "employers": 5573, "processing": 5574, "distort": 5575, "identity": 5576, "encouraged": 5577, "Comb": 5578, "Ortega": 5579, "affects": 5580, "constitutes": 5581, "Howitt": 5582, "foundations": 5583, "choose": 5584, "evalu": 5585, "ethnic": 5586, "Paul": 5587, "dispute": 5588, "waters": 5589, "deficit": 5590, "Kyoto": 5591, "Pursu": 5592, "Maaten": 5593, "Brazil": 5594, "enlarged": 5595, "Iceland": 5596, "widespread": 5597, "AF": 5598, "Haut": 5599, "Ren": 5600, "Vene": 5601, "Wurt": 5602, "aver": 5603, "bres": 5604, "ker": 5605, "kes": 5606, "source": 5607, "replaced": 5608, "ani": 5609, "enophobia": 5610, "ality": 5611, "ederation": 5612, "ingdorf": 5613, "stone": 5614, "forgot": 5615, "conce": 5616, "adjust": 5617, "exempt": 5618, "raises": 5619, "ayann": 5620, "cipl": 5621, "usal": 5622, "joining": 5623, "marks": 5624, "interinstitutional": 5625, "taine": 5626, "aircraft": 5627, "regardless": 5628, "Also": 5629, "looked": 5630, "allows": 5631, "representation": 5632, "Barn": 5633, "Baringdorf": 5634, "Doyle": 5635, "chell": 5636, "heading": 5637, "Bernd": 5638, "Orden": 5639, "Add": 5640, "treated": 5641, "fairly": 5642, "Papayann": 5643, "ambition": 5644, "maintained": 5645, "radio": 5646, "quota": 5647, "marked": 5648, "candidates": 5649, "drafted": 5650, "forests": 5651, "Haiti": 5652, "coherence": 5653, "experts": 5654, "Graefe": 5655, "graphic": 5656, "Millennium": 5657, "prosperity": 5658, "destroy": 5659, "dynamic": 5660, "Fontaine": 5661, "Pursuant": 5662, "Wurtz": 5663, "Papayannakis": 5664, "CC": 5665, "Far": 5666, "Mex": 5667, "Net": 5668, "Sir": 5669, "Vel": 5670, "VII": 5671, "award": 5672, "ballot": 5673, "cities": 5674, "ds": 5675, "fre": 5676, "kland": 5677, "rust": 5678, "rising": 5679, "ub": 5680, "wider": 5681, "rect": 5682, "erly": 5683, "oured": 5684, "forum": 5685, "dered": 5686, "degree": 5687, "olit": 5688, "admissible": 5689, "loss": 5690, "unfortunate": 5691, "notice": 5692, "sities": 5693, "sial": 5694, "govina": 5695, "viable": 5696, "upd": 5697, "evident": 5698, "Conciliation": 5699, "surely": 5700, "responses": 5701, "pharm": 5702, "incident": 5703, "Ang": 5704, "Anne": 5705, "surv": 5706, "Islands": 5707, "personnel": 5708, "foods": 5709, "sequent": 5710, "correction": 5711, "substanti": 5712, "addresses": 5713, "explained": 5714, "doubts": 5715, "zegovina": 5716, "indicate": 5717, "multi": 5718, "tariff": 5719, "consistency": 5720, "losses": 5721, "Aubres": 5722, "Herzegovina": 5723, "neighbours": 5724, "willingness": 5725, "Bonino": 5726, "compliment": 5727, "surprised": 5728, "murder": 5729, "atellite": 5730, "uniform": 5731, "constantly": 5732, "genetically": 5733, "hypocris": 5734, "Prize": 5735, "geographical": 5736, "definitely": 5737, "destruction": 5738, "Fabre": 5739, "EIB": 5740, "surveillance": 5741, "Defence": 5742, "scandal": 5743, "EPLP": 5744, "Hautala": 5745, "Venezue": 5746, "Barnier": 5747, "Den": 5748, "Equality": 5749, "GC": 5750, "Hans": 5751, "HIV": 5752, "IA": 5753, "Jun": 5754, "Lud": 5755, "Mit": 5756, "Phil": 5757, "ather": 5758, "drop": 5759, "ered": 5760, "gies": 5761, "jur": 5762, "reci": 5763, "ato": 5764, "erred": 5765, "alia": 5766, "agu": 5767, "loc": 5768, "haz": 5769, "irms": 5770, "acting": 5771, "erson": 5772, "lower": 5773, "partly": 5774, "seeing": 5775, "controll": 5776, "iredo": 5777, "formally": 5778, "moratorium": 5779, "cycl": 5780, "ueiredo": 5781, "obser": 5782, "subsequent": 5783, "pensions": 5784, "entials": 5785, "visual": 5786, "promised": 5787, "lander": 5788, "iversities": 5789, "Doha": 5790, "promoted": 5791, "Liberties": 5792, "Romanian": 5793, "Head": 5794, "benefici": 5795, "itoring": 5796, "educ": 5797, "flag": 5798, "broadcas": 5799, "powerful": 5800, "regrettable": 5801, "Communities": 5802, "Monitoring": 5803, "vehicle": 5804, "Malta": 5805, "running": 5806, "conducted": 5807, "rigorous": 5808, "clean": 5809, "occasions": 5810, "banks": 5811, "Implementing": 5812, "stakeholders": 5813, "Belgium": 5814, "attempts": 5815, "Bowis": 5816, "slightly": 5817, "incentives": 5818, "Super": 5819, "symbol": 5820, "imperialist": 5821, "Mulder": 5822, "controversial": 5823, "Measures": 5824, "Sustain": 5825, "Neighbourhood": 5826, "Figueiredo": 5827, "Aubrespy": 5828, "hypocrisy": 5829, "Fat": 5830, "IGC": 5831, "Nep": 5832, "Sand": 5833, "TA": 5834, "Vitor": 5835, "West": 5836, "gers": 5837, "hit": 5838, "opo": 5839, "pil": 5840, "tit": 5841, "til": 5842, "tried": 5843, "recon": 5844, "Thom": 5845, "proof": 5846, "lights": 5847, "exemp": 5848, "plus": 5849, "percent": 5850, "undertaking": 5851, "assoni": 5852, "manage": 5853, "summer": 5854, "economically": 5855, "Ander": 5856, "qualities": 5857, "compared": 5858, "receiving": 5859, "Alba": 5860, "aily": 5861, "numbers": 5862, "Frassoni": 5863, "solid": 5864, "Maur": 5865, "Maij": 5866, "hands": 5867, "ijk": 5868, "Adoption": 5869, "drink": 5870, "credentials": 5871, "periods": 5872, "Geneva": 5873, "oulou": 5874, "Conservative": 5875, "materials": 5876, "bureaucracy": 5877, "Blokland": 5878, "options": 5879, "coastal": 5880, "settlement": 5881, "Democracy": 5882, "cofin": 5883, "Libya": 5884, "ecological": 5885, "Nielson": 5886, "condolences": 5887, "suffered": 5888, "Vitorino": 5889, "IF": 5890, "Lamber": 5891, "OL": 5892, "Oost": 5893, "PN": 5894, "Vinci": 5895, "bid": 5896, "dream": 5897, "daily": 5898, "ggen": 5899, "purely": 5900, "rank": 5901, "vist": 5902, "ony": 5903, "inquiry": 5904, "enthus": 5905, "arrest": 5906, "iced": 5907, "leaving": 5908, "determ": 5909, "proliferation": 5910, "illust": 5911, "verse": 5912, "rie": 5913, "notably": 5914, "compl": 5915, "comput": 5916, "possibilities": 5917, "uster": 5918, "Weggen": 5919, "cloning": 5920, "black": 5921, "aucas": 5922, "duly": 5923, "discipl": 5924, "transactions": 5925, "integrate": 5926, "frag": 5927, "phr": 5928, "strugg": 5929, "demographic": 5930, "happens": 5931, "negotiate": 5932, "Islam": 5933, "Costa": 5934, "regulate": 5935, "Liber": 5936, "accessible": 5937, "achievements": 5938, "containing": 5939, "missions": 5940, "Lucas": 5941, "multilateral": 5942, "penalties": 5943, "drivers": 5944, "Bang": 5945, "neighbouring": 5946, "advantages": 5947, "Estonia": 5948, "Otherwise": 5949, "excuse": 5950, "vigilant": 5951, "skills": 5952, "counterfeiting": 5953, "dramatic": 5954, "Floren": 5955, "Indonesia": 5956, "biofuels": 5957, "freight": 5958, "Fatuzzo": 5959, "Andersson": 5960, "Oostlander": 5961, "enthusi": 5962, "determine": 5963, "Equ": 5964, "Fran": 5965, "Gender": 5966, "Jar": 5967, "Tam": 5968, "core": 5969, "dner": 5970, "eyes": 5971, "hous": 5972, "mountain": 5973, "orest": 5974, "ps": 5975, "sports": 5976, "zemb": 5977, "inen": 5978, "itative": 5979, "itzer": 5980, "rov": 5981, "resh": 5982, "vege": 5983, "deem": 5984, "ligent": 5985, "illon": 5986, "arer": 5987, "unte": 5988, "sharing": 5989, "ounce": 5990, "complement": 5991, "Wel": 5992, "site": 5993, "mach": 5994, "precaution": 5995, "aves": 5996, "yourself": 5997, "pris": 5998, "elho": 5999, "importantly": 6000, "guin": 6001, "airlines": 6002, "welcoming": 6003, "cker": 6004, "Finland": 6005, "Ford": 6006, "osop": 6007, "increases": 6008, "confusion": 6009, "worldwide": 6010, "persist": 6011, "communicate": 6012, "largely": 6013, "retur": 6014, "Coelho": 6015, "regulated": 6016, "feeling": 6017, "easier": 6018, "Switzer": 6019, "civilian": 6020, "iovisual": 6021, "Guid": 6022, "domin": 6023, "biggest": 6024, "demonstration": 6025, "Monten": 6026, "infrastructures": 6027, "Both": 6028, "carrying": 6029, "latter": 6030, "argument": 6031, "green": 6032, "wonderful": 6033, "fuels": 6034, "Service": 6035, "CFSP": 6036, "ministers": 6037, "itology": 6038, "Rapport": 6039, "imagine": 6040, "article": 6041, "Reding": 6042, "Relations": 6043, "Timor": 6044, "Waldner": 6045, "lasting": 6046, "entrepreneur": 6047, "taxpayers": 6048, "digital": 6049, "conservation": 6050, "Michel": 6051, "aughter": 6052, "Combating": 6053, "Nepal": 6054, "Jarzemb": 6055, "Switzerland": 6056, "Jarzembowski": 6057, "Bet": 6058, "Kaz": 6059, "Lo": 6060, "Lind": 6061, "Nich": 6062, "Nuclear": 6063, "PA": 6064, "Pas": 6065, "TD": 6066, "bat": 6067, "bom": 6068, "bul": 6069, "battle": 6070, "fit": 6071, "gri": 6072, "lor": 6073, "mus": 6074, "rul": 6075, "tough": 6076, "uc": 6077, "thoughts": 6078, "rep": 6079, "remed": 6080, "infl": 6081, "encing": 6082, "oring": 6083, "ero": 6084, "alleg": 6085, "cease": 6086, "coni": 6087, "agn": 6088, "ulf": 6089, "poorest": 6090, "shame": 6091, "opard": 6092, "abort": 6093, "abuses": 6094, "compon": 6095, "possibly": 6096, "icht": 6097, "outset": 6098, "partially": 6099, "contam": 6100, "Reco": 6101, "intergovernmental": 6102, "redund": 6103, "Concern": 6104, "gratitude": 6105, "trave": 6106, "track": 6107, "Finn": 6108, "minors": 6109, "monopo": 6110, "Ange": 6111, "balances": 6112, "knows": 6113, "necessarily": 6114, "species": 6115, "Cox": 6116, "solved": 6117, "Verification": 6118, "Here": 6119, "beneficial": 6120, "players": 6121, "demanding": 6122, "double": 6123, "endorsed": 6124, "privacy": 6125, "adequ": 6126, "Environmental": 6127, "Staes": 6128, "dumping": 6129, "investigate": 6130, "simplify": 6131, "faith": 6132, "diction": 6133, "dictator": 6134, "twenty": 6135, "eliminate": 6136, "secret": 6137, "Ferrero": 6138, "nonetheless": 6139, "translation": 6140, "heavy": 6141, "egro": 6142, "Seventh": 6143, "biotechn": 6144, "collaboration": 6145, "jeopard": 6146, "scrutiny": 6147, "phenomenon": 6148, "Nonetheless": 6149, "Mexico": 6150, "Montenegro": 6151, "Rapporteur": 6152, "Nichol": 6153, "ASE": 6154, "Caucas": 6155, "Grow": 6156, "Hall": 6157, "Kre": 6158, "Out": 6159, "Oly": 6160, "Roc": 6161, "Som": 6162, "Sak": 6163, "culation": 6164, "fal": 6165, "mir": 6166, "mouth": 6167, "nut": 6168, "qvist": 6169, "rum": 6170, "satellite": 6171, "inser": 6172, "ane": 6173, "isol": 6174, "alarm": 6175, "entail": 6176, "edter": 6177, "roedter": 6178, "lebr": 6179, "iles": 6180, "forcing": 6181, "celebr": 6182, "prop": 6183, "constra": 6184, "liked": 6185, "imal": 6186, "chap": 6187, "ques": 6188, "apparent": 6189, "worst": 6190, "coal": 6191, "size": 6192, "ller": 6193, "disabilities": 6194, "offic": 6195, "underline": 6196, "margin": 6197, "interventions": 6198, "rela": 6199, "relative": 6200, "cussions": 6201, "considerably": 6202, "expresses": 6203, "looks": 6204, "rejecting": 6205, "signing": 6206, "ECU": 6207, "helps": 6208, "organic": 6209, "Appoint": 6210, "Isler": 6211, "backing": 6212, "Schroedter": 6213, "Regul": 6214, "leads": 6215, "pleasant": 6216, "violation": 6217, "built": 6218, "heads": 6219, "Berlin": 6220, "emphasised": 6221, "Peter": 6222, "fails": 6223, "electoral": 6224, "hardt": 6225, "choices": 6226, "Application": 6227, "condemned": 6228, "delays": 6229, "safeguarding": 6230, "Morillon": 6231, "amounts": 6232, "elsewhere": 6233, "largest": 6234, "drafts": 6235, "Campos": 6236, "Herman": 6237, "condemnation": 6238, "patience": 6239, "massive": 6240, "depth": 6241, "Freedoms": 6242, "Scott": 6243, "precedent": 6244, "Change": 6245, "Lebanon": 6246, "crops": 6247, "Venezuela": 6248, "computer": 6249, "Bangemann": 6250, "Olymp": 6251, "Ari": 6252, "Aher": 6253, "Gall": 6254, "Gah": 6255, "Habs": 6256, "Jean": 6257, "Lank": 6258, "Pan": 6259, "Pen": 6260, "Sri": 6261, "Speci": 6262, "SIS": 6263, "Southern": 6264, "War": 6265, "fur": 6266, "iop": 6267, "katell": 6268, "pain": 6269, "vy": 6270, "atz": 6271, "ites": 6272, "itch": 6273, "army": 6274, "icated": 6275, "ilosop": 6276, "becomes": 6277, "detri": 6278, "orture": 6279, "celer": 6280, "lie": 6281, "reported": 6282, "nobody": 6283, "door": 6284, "commended": 6285, "moved": 6286, "preferen": 6287, "motiv": 6288, "persecut": 6289, "fulfill": 6290, "genoc": 6291, "corner": 6292, "etc": 6293, "wishing": 6294, "cutting": 6295, "hopefully": 6296, "puts": 6297, "phys": 6298, "philosop": 6299, "basically": 6300, "environmentally": 6301, "answering": 6302, "examination": 6303, "societ": 6304, "ileo": 6305, "topics": 6306, "missing": 6307, "Media": 6308, "bilisation": 6309, "emphasize": 6310, "moments": 6311, "Sahar": 6312, "judge": 6313, "reflection": 6314, "reflected": 6315, "harmonised": 6316, "railways": 6317, "resolving": 6318, "Martens": 6319, "volunte": 6320, "connected": 6321, "autonom": 6322, "unanimity": 6323, "Prevention": 6324, "bearing": 6325, "neighbourhood": 6326, "coordinate": 6327, "rapidly": 6328, "incorporate": 6329, "adapt": 6330, "ethical": 6331, "usually": 6332, "reliable": 6333, "reaffirm": 6334, "Galileo": 6335, "bureaucratic": 6336, "nearly": 6337, "attendance": 6338, "consultations": 6339, "Slovenia": 6340, "corresponding": 6341, "Basque": 6342, "copyright": 6343, "conscience": 6344, "revenue": 6345, "terrible": 6346, "Ethiop": 6347, "approximately": 6348, "Objective": 6349, "average": 6350, "Denmark": 6351, "Ludford": 6352, "controlled": 6353, "pilot": 6354, "Lambert": 6355, "Finnish": 6356, "Growth": 6357, "Ahern": 6358, "Habsburg": 6359, "katellis": 6360, "genocide": 6361, "Bour": 6362, "Bush": 6363, "Clear": 6364, "EG": 6365, "God": 6366, "Haug": 6367, "Jens": 6368, "Kor": 6369, "Kau": 6370, "MO": 6371, "Mat": 6372, "Nass": 6373, "Rail": 6374, "Sal": 6375, "Small": 6376, "aqu": 6377, "diver": 6378, "fy": 6379, "fem": 6380, "firms": 6381, "mick": 6382, "nine": 6383, "pestic": 6384, "rou": 6385, "sending": 6386, "tight": 6387, "xenophobia": 6388, "itz": 6389, "armed": 6390, "deira": 6391, "liber": 6392, "impression": 6393, "tably": 6394, "rain": 6395, "notes": 6396, "accompan": 6397, "soil": 6398, "cially": 6399, "berg": 6400, "Nogue": 6401, "lled": 6402, "anybody": 6403, "permission": 6404, "jointly": 6405, "humanity": 6406, "ublin": 6407, "trace": 6408, "authorisation": 6409, "virt": 6410, "brid": 6411, "protectionism": 6412, "princip": 6413, "ECB": 6414, "warrant": 6415, "Cormick": 6416, "langes": 6417, "Agreements": 6418, "violent": 6419, "showing": 6420, "tradition": 6421, "Trakatellis": 6422, "offering": 6423, "Solbes": 6424, "commerce": 6425, "clearer": 6426, "Taj": 6427, "horiz": 6428, "Broek": 6429, "Abbreviated": 6430, "arrived": 6431, "envisaged": 6432, "ilingual": 6433, "ambigu": 6434, "Mandel": 6435, "Kurdish": 6436, "forgotten": 6437, "Angola": 6438, "Sustainable": 6439, "precautionary": 6440, "Concerning": 6441, "Caucasus": 6442, "Bourlanges": 6443, "Nassauer": 6444, "accompanied": 6445, "Nogueira": 6446, "Aug": 6447, "Dublin": 6448, "Elect": 6449, "Fac": 6450, "Gil": 6451, "Great": 6452, "Mil": 6453, "Sk": 6454, "Ste": 6455, "SEC": 6456, "ez": 6457, "jer": 6458, "praise": 6459, "rare": 6460, "rating": 6461, "sof": 6462, "sink": 6463, "tor": 6464, "reb": 6465, "inder": 6466, "anas": 6467, "orin": 6468, "albe": 6469, "arise": 6470, "assurance": 6471, "Through": 6472, "prosecut": 6473, "conven": 6474, "imes": 6475, "agher": 6476, "race": 6477, "quarter": 6478, "quiet": 6479, "accompl": 6480, "amentally": 6481, "intensive": 6482, "akh": 6483, "Initi": 6484, "proven": 6485, "presents": 6486, "Conclu": 6487, "accepting": 6488, "write": 6489, "islands": 6490, "transnational": 6491, "readmission": 6492, "train": 6493, "Whilst": 6494, "suspension": 6495, "Marset": 6496, "desirable": 6497, "respecting": 6498, "ECR": 6499, "necessity": 6500, "organiz": 6501, "socio": 6502, "movements": 6503, "calendar": 6504, "thirdly": 6505, "abstaining": 6506, "himself": 6507, "diox": 6508, "istration": 6509, "credible": 6510, "messages": 6511, "restricted": 6512, "checked": 6513, "multiannual": 6514, "midnight": 6515, "integrity": 6516, "MacCormick": 6517, "exerc": 6518, "Viol": 6519, "simplifying": 6520, "abolish": 6521, "regularly": 6522, "Management": 6523, "territories": 6524, "occupation": 6525, "strike": 6526, "advocate": 6527, "turned": 6528, "Director": 6529, "itored": 6530, "complaint": 6531, "Drug": 6532, "Similar": 6533, "privileg": 6534, "Network": 6535, "substantially": 6536, "Mitchell": 6537, "Nicholson": 6538, "Gallagher": 6539, "Lanka": 6540, "Sahara": 6541, "albeit": 6542, "Bor": 6543, "Cl": 6544, "Da": 6545, "Dam": 6546, "EF": 6547, "Gros": 6548, "GDP": 6549, "Goll": 6550, "Jonas": 6551, "Round": 6552, "Vir": 6553, "Wyn": 6554, "band": 6555, "da": 6556, "ige": 6557, "nisch": 6558, "pin": 6559, "pir": 6560, "south": 6561, "torture": 6562, "uber": 6563, "inland": 6564, "arising": 6565, "severe": 6566, "detain": 6567, "utical": 6568, "ama": 6569, "ades": 6570, "ours": 6571, "agno": 6572, "explicit": 6573, "habit": 6574, "harov": 6575, "dog": 6576, "doct": 6577, "feature": 6578, "acted": 6579, "sight": 6580, "proving": 6581, "undermin": 6582, "marking": 6583, "spend": 6584, "relate": 6585, "tables": 6586, "frank": 6587, "courts": 6588, "Chile": 6589, "monitored": 6590, "fixed": 6591, "Former": 6592, "contributing": 6593, "organise": 6594, "organization": 6595, "ordination": 6596, "ligence": 6597, "concluding": 6598, "Hecke": 6599, "achievement": 6600, "handling": 6601, "Britain": 6602, "withdrawal": 6603, "Carl": 6604, "covering": 6605, "Agricultural": 6606, "audiovisual": 6607, "references": 6608, "apologies": 6609, "Fern": 6610, "pressive": 6611, "seekers": 6612, "interrupt": 6613, "removal": 6614, "deplo": 6615, "postponement": 6616, "install": 6617, "instance": 6618, "reserved": 6619, "College": 6620, "watch": 6621, "solely": 6622, "preserve": 6623, "David": 6624, "fifth": 6625, "Rossa": 6626, "acknowledged": 6627, "accurate": 6628, "Queir": 6629, "Increas": 6630, "conviction": 6631, "storage": 6632, "Velzen": 6633, "Philip": 6634, "educational": 6635, "broadcasting": 6636, "Maurit": 6637, "PNR": 6638, "Sakharov": 6639, "Specific": 6640, "August": 6641, "Grosset": 6642, "Gollnisch": 6643, "Black": 6644, "Dar": 6645, "Gi": 6646, "Ham": 6647, "Non": 6648, "Nic": 6649, "Prom": 6650, "RC": 6651, "Ug": 6652, "Ur": 6653, "Wol": 6654, "Where": 6655, "cital": 6656, "ee": 6657, "east": 6658, "flights": 6659, "ns": 6660, "tang": 6661, "vast": 6662, "vacc": 6663, "rem": 6664, "inev": 6665, "inappropriate": 6666, "infect": 6667, "insufficient": 6668, "era": 6669, "ert": 6670, "rog": 6671, "stick": 6672, "secur": 6673, "deput": 6674, "Theorin": 6675, "whol": 6676, "ura": 6677, "terinary": 6678, "oppos": 6679, "comitology": 6680, "aceutical": 6681, "ured": 6682, "claims": 6683, "foremost": 6684, "sio": 6685, "Instru": 6686, "speaks": 6687, "cert": 6688, "Recital": 6689, "cury": 6690, "inequalities": 6691, "operability": 6692, "Ass": 6693, "intoler": 6694, "regarded": 6695, "conditional": 6696, "finances": 6697, "struck": 6698, "incidents": 6699, "refuse": 6700, "tenance": 6701, "echo": 6702, "purch": 6703, "acceptance": 6704, "requis": 6705, "DEC": 6706, "pense": 6707, "distance": 6708, "crises": 6709, "approaches": 6710, "completion": 6711, "supposed": 6712, "supplies": 6713, "delicate": 6714, "tackled": 6715, "clarified": 6716, "Competition": 6717, "innocent": 6718, "definitive": 6719, "easily": 6720, "participating": 6721, "statistical": 6722, "postal": 6723, "Canada": 6724, "profound": 6725, "testing": 6726, "equival": 6727, "Perry": 6728, "indicators": 6729, "supervisory": 6730, "designate": 6731, "vigation": 6732, "catast": 6733, "accountability": 6734, "prospect": 6735, "primary": 6736, "Scot": 6737, "CFP": 6738, "schools": 6739, "bels": 6740, "Overall": 6741, "Should": 6742, "EDD": 6743, "orientation": 6744, "journalists": 6745, "summarise": 6746, "Arab": 6747, "enabling": 6748, "begun": 6749, "phrase": 6750, "deemed": 6751, "ruling": 6752, "abortion": 6753, "Olympic": 6754, "Clearly": 6755, "horizon": 6756, "Similarly": 6757, "BU": 6758, "Effect": 6759, "Ku": 6760, "Lar": 6761, "Most": 6762, "Next": 6763, "Pi": 6764, "Pover": 6765, "Rich": 6766, "Wu": 6767, "bot": 6768, "base": 6769, "ield": 6770, "jun": 6771, "tro": 6772, "vine": 6773, "xual": 6774, "reactions": 6775, "ensio": 6776, "istered": 6777, "asc": 6778, "stad": 6779, "ote": 6780, "illegally": 6781, "weight": 6782, "imer": 6783, "imate": 6784, "agents": 6785, "exchanges": 6786, "expense": 6787, "unemployed": 6788, "haust": 6789, "irregular": 6790, "ops": 6791, "absur": 6792, "absent": 6793, "aculture": 6794, "acceler": 6795, "sites": 6796, "derog": 6797, "akas": 6798, "Inte": 6799, "dispar": 6800, "discre": 6801, "percussions": 6802, "Madrid": 6803, "redi": 6804, "enses": 6805, "justification": 6806, "Asensio": 6807, "emporary": 6808, "transmission": 6809, "reads": 6810, "osexual": 6811, "informal": 6812, "fundamentally": 6813, "Maritime": 6814, "wheel": 6815, "mix": 6816, "conferred": 6817, "visas": 6818, "Schreyer": 6819, "adjourn": 6820, "bananas": 6821, "foodstuffs": 6822, "nesses": 6823, "caut": 6824, "supplement": 6825, "Lehne": 6826, "Leinen": 6827, "identify": 6828, "sustained": 6829, "Madeira": 6830, "Articles": 6831, "consequence": 6832, "Ortu": 6833, "buildings": 6834, "mercury": 6835, "inians": 6836, "militar": 6837, "subscri": 6838, "organisms": 6839, "renewed": 6840, "midday": 6841, "safeguards": 6842, "Camis": 6843, "speedy": 6844, "banking": 6845, "Manuel": 6846, "campaigns": 6847, "applicant": 6848, "gradually": 6849, "historical": 6850, "succeeded": 6851, "logical": 6852, "permitted": 6853, "appalling": 6854, "infringement": 6855, "length": 6856, "chemicals": 6857, "Armenia": 6858, "Alexandros": 6859, "Certain": 6860, "shock": 6861, "pluralism": 6862, "exemptions": 6863, "beneficiaries": 6864, "title": 6865, "Thomas": 6866, "Better": 6867, "physical": 6868, "societies": 6869, "female": 6870, "Mauritania": 6871, "tangible": 6872, "opposite": 6873, "Poverty": 6874, "Richard": 6875, "Ortuondo": 6876, "Buit": 6877, "Data": 6878, "Federation": 6879, "Gor": 6880, "HU": 6881, "Lond": 6882, "Mig": 6883, "Rest": 6884, "Sport": 6885, "Sam": 6886, "She": 6887, "Vol": 6888, "Vare": 6889, "Wi": 6890, "Wij": 6891, "aj": 6892, "bill": 6893, "bbels": 6894, "elig": 6895, "iwan": 6896, "psy": 6897, "rout": 6898, "sac": 6899, "sought": 6900, "tour": 6901, "vic": 6902, "wis": 6903, "wing": 6904, "recru": 6905, "reconciliation": 6906, "recommended": 6907, "oure": 6908, "entered": 6909, "beek": 6910, "pere": 6911, "confine": 6912, "adjustment": 6913, "impet": 6914, "exhaust": 6915, "Eurostat": 6916, "unification": 6917, "paralle": 6918, "tings": 6919, "cosur": 6920, "Inno": 6921, "ava": 6922, "prise": 6923, "interim": 6924, "Among": 6925, "orders": 6926, "assment": 6927, "ckx": 6928, "maintenance": 6929, "tension": 6930, "Deleg": 6931, "viously": 6932, "DEM": 6933, "prompt": 6934, "senbeek": 6935, "athies": 6936, "Within": 6937, "Mahon": 6938, "Maastr": 6939, "lacking": 6940, "Andre": 6941, "generous": 6942, "McCar": 6943, "McMahon": 6944, "merits": 6945, "lifelong": 6946, "ambitions": 6947, "senti": 6948, "names": 6949, "IND": 6950, "talked": 6951, "modernisation": 6952, "facilitating": 6953, "faire": 6954, "Taiwan": 6955, "grace": 6956, "adaptation": 6957, "divided": 6958, "rendt": 6959, "embry": 6960, "remarkable": 6961, "secretariat": 6962, "controlling": 6963, "populations": 6964, "smoking": 6965, "Lamy": 6966, "Mercosur": 6967, "Slovenian": 6968, "Obviously": 6969, "born": 6970, "Naturally": 6971, "manufacturers": 6972, "stressed": 6973, "split": 6974, "Goebbels": 6975, "savings": 6976, "Customs": 6977, "vocational": 6978, "excluded": 6979, "pharmaceutical": 6980, "Heads": 6981, "exemption": 6982, "Florenz": 6983, "Tampere": 6984, "Rocard": 6985, "constraints": 6986, "absurd": 6987, "Buiten": 6988, "London": 6989, "Varela": 6990, "Wijsenbeek": 6991, "impetus": 6992, "Maastricht": 6993, "McCarthy": 6994, "Cal": 6995, "Ed": 6996, "Ell": 6997, "Federal": 6998, "HO": 6999, "Hap": 7000, "Key": 7001, "Pres": 7002, "Use": 7003, "cot": 7004, "dro": 7005, "fresh": 7006, "hi": 7007, "hrendt": 7008, "pa": 7009, "scre": 7010, "spring": 7011, "repercussions": 7012, "incur": 7013, "insp": 7014, "isations": 7015, "orn": 7016, "toys": 7017, "icting": 7018, "devoted": 7019, "concession": 7020, "chose": 7021, "irty": 7022, "aca": 7023, "ivoc": 7024, "cancell": 7025, "registration": 7026, "imported": 7027, "clothing": 7028, "guy": 7029, "consists": 7030, "financed": 7031, "refusal": 7032, "Forum": 7033, "Behrendt": 7034, "roads": 7035, "transportation": 7036, "retire": 7037, "banana": 7038, "bench": 7039, "introduces": 7040, "combined": 7041, "mistakes": 7042, "tuna": 7043, "bio": 7044, "president": 7045, "sheep": 7046, "released": 7047, "northern": 7048, "founded": 7049, "checks": 7050, "Burund": 7051, "ACH": 7052, "eventually": 7053, "Palestinians": 7054, "Stabilisation": 7055, "restrictive": 7056, "quote": 7057, "associations": 7058, "camps": 7059, "patient": 7060, "passion": 7061, "removing": 7062, "awaiting": 7063, "twice": 7064, "Karas": 7065, "figure": 7066, "Harbour": 7067, "Harris": 7068, "punishment": 7069, "reserves": 7070, "arrive": 7071, "Accordingly": 7072, "REACH": 7073, "microphone": 7074, "homosexual": 7075, "errors": 7076, "hunger": 7077, "tolerance": 7078, "flows": 7079, "resistance": 7080, "McCart": 7081, "distinction": 7082, "expertise": 7083, "Neyra": 7084, "percentage": 7085, "inflation": 7086, "adequately": 7087, "propag": 7088, "Jensen": 7089, "Darfur": 7090, "Uganda": 7091, "Scotland": 7092, "Aviation": 7093, "Cun": 7094, "Cross": 7095, "DG": 7096, "EN": 7097, "Hy": 7098, "Hatz": 7099, "IL": 7100, "Pl": 7101, "Ve": 7102, "abe": 7103, "dur": 7104, "gi": 7105, "hence": 7106, "ience": 7107, "ja": 7108, "mant": 7109, "magn": 7110, "ovation": 7111, "southern": 7112, "oned": 7113, "reveal": 7114, "itment": 7115, "rob": 7116, "arres": 7117, "ili": 7118, "idal": 7119, "idem": 7120, "idakis": 7121, "ctives": 7122, "seats": 7123, "older": 7124, "keen": 7125, "ading": 7126, "adverse": 7127, "chain": 7128, "ults": 7129, "ends": 7130, "plat": 7131, "pled": 7132, "abl": 7133, "speculation": 7134, "likewise": 7135, "cooper": 7136, "registered": 7137, "pressing": 7138, "prerequis": 7139, "aval": 7140, "disastr": 7141, "string": 7142, "counting": 7143, "Sten": 7144, "joined": 7145, "gna": 7146, "ageing": 7147, "undermine": 7148, "interference": 7149, "transform": 7150, "channel": 7151, "mainstream": 7152, "Chris": 7153, "funded": 7154, "oking": 7155, "Marin": 7156, "systematically": 7157, "initiated": 7158, "migrants": 7159, "approving": 7160, "Towards": 7161, "pursued": 7162, "pursuing": 7163, "remained": 7164, "calm": 7165, "Leon": 7166, "plays": 7167, "vari": 7168, "diagno": 7169, "Robert": 7170, "presidential": 7171, "Training": 7172, "broader": 7173, "engagement": 7174, "reviewed": 7175, "Christians": 7176, "privat": 7177, "deteri": 7178, "partnerships": 7179, "ratify": 7180, "appointed": 7181, "Iranian": 7182, "advanced": 7183, "mandatory": 7184, "reservation": 7185, "deadlines": 7186, "reinforced": 7187, "Establ": 7188, "Watts": 7189, "gradual": 7190, "elimination": 7191, "popular": 7192, "Dimas": 7193, "lobby": 7194, "embargo": 7195, "Silguy": 7196, "Liberals": 7197, "entrepreneurship": 7198, "Hallam": 7199, "Ethiopia": 7200, "Korakas": 7201, "deplore": 7202, "Instrument": 7203, "equivalent": 7204, "horizontal": 7205, "BUD": 7206, "stadt": 7207, "Hatzidakis": 7208, "disastrous": 7209, "Ay": 7210, "CT": 7211, "Card": 7212, "Cash": 7213, "Don": 7214, "Del": 7215, "Election": 7216, "Its": 7217, "Jack": 7218, "Mag": 7219, "Ram": 7220, "Ster": 7221, "died": 7222, "fate": 7223, "pict": 7224, "ras": 7225, "thrust": 7226, "ange": 7227, "anmar": 7228, "ensible": 7229, "atom": 7230, "attract": 7231, "tos": 7232, "asion": 7233, "ille": 7234, "cting": 7235, "seed": 7236, "sele": 7237, "deus": 7238, "imposing": 7239, "champ": 7240, "agend": 7241, "empl": 7242, "loans": 7243, "hab": 7244, "noticed": 7245, "soever": 7246, "appointing": 7247, "jection": 7248, "features": 7249, "preserv": 7250, "partial": 7251, "moves": 7252, "iculous": 7253, "astic": 7254, "whatsoever": 7255, "Process": 7256, "decades": 7257, "fron": 7258, "custom": 7259, "Which": 7260, "incing": 7261, "Marke": 7262, "Marie": 7263, "socialist": 7264, "signs": 7265, "contributes": 7266, "farms": 7267, "izing": 7268, "Myanmar": 7269, "elderly": 7270, "cultures": 7271, "extrem": 7272, "cards": 7273, "inside": 7274, "defining": 7275, "statute": 7276, "ijs": 7277, "engaged": 7278, "merit": 7279, "warmest": 7280, "harmonise": 7281, "damaging": 7282, "enhancing": 7283, "multilingual": 7284, "Prof": 7285, "Posit": 7286, "convincing": 7287, "Financing": 7288, "corporate": 7289, "perspectives": 7290, "Ferber": 7291, "totalitarian": 7292, "alternatives": 7293, "Austral": 7294, "armament": 7295, "refugee": 7296, "famili": 7297, "Tax": 7298, "livestock": 7299, "concentration": 7300, "feeding": 7301, "intelligent": 7302, "laying": 7303, "reserve": 7304, "characteristics": 7305, "disputes": 7306, "turning": 7307, "contradiction": 7308, "category": 7309, "complaints": 7310, "Davies": 7311, "lobally": 7312, "exclusively": 7313, "stresses": 7314, "Euratom": 7315, "Sacr": 7316, "Sacconi": 7317, "hrkop": 7318, "judgment": 7319, "inspection": 7320, "exceeded": 7321, "Political": 7322, "Frontex": 7323, "evaluate": 7324, "hazard": 7325, "observers": 7326, "discipline": 7327, "housing": 7328, "Kazakh": 7329, "traceability": 7330, "principal": 7331, "Mandelson": 7332, "Wynn": 7333, "bottom": 7334, "Miguel": 7335, "wisdom": 7336, "fairer": 7337, "Elles": 7338, "retirement": 7339, "Burundi": 7340, "Sterckx": 7341, "preservation": 7342, "Cot": 7343, "Dialogue": 7344, "IM": 7345, "Ivo": 7346, "Kati": 7347, "Naz": 7348, "Pir": 7349, "Pie": 7350, "Spring": 7351, "Temporary": 7352, "Wog": 7353, "egg": 7354, "fasc": 7355, "globally": 7356, "heral": 7357, "huber": 7358, "lists": 7359, "mu": 7360, "nice": 7361, "rne": 7362, "rated": 7363, "tte": 7364, "twel": 7365, "replacing": 7366, "indis": 7367, "atmo": 7368, "eda": 7369, "aste": 7370, "assum": 7371, "oman": 7372, "lean": 7373, "Three": 7374, "stab": 7375, "stages": 7376, "foris": 7377, "Theato": 7378, "weg": 7379, "atemal": 7380, "residence": 7381, "excise": 7382, "termin": 7383, "shr": 7384, "alled": 7385, "quivoc": 7386, "neo": 7387, "neut": 7388, "meets": 7389, "essence": 7390, "trou": 7391, "cla": 7392, "actors": 7393, "supportive": 7394, "ancell": 7395, "duct": 7396, "dismant": 7397, "yours": 7398, "motive": 7399, "update": 7400, "moreover": 7401, "Recent": 7402, "offices": 7403, "underlying": 7404, "interparliamentary": 7405, "saw": 7406, "cuts": 7407, "consent": 7408, "learned": 7409, "epidem": 7410, "obs": 7411, "Chad": 7412, "attini": 7413, "Anti": 7414, "refused": 7415, "whereas": 7416, "systematic": 7417, "collection": 7418, "creates": 7419, "sett": 7420, "requiring": 7421, "surround": 7422, "fishery": 7423, "topoulou": 7424, "Frattini": 7425, "appropriately": 7426, "paying": 7427, "parents": 7428, "faces": 7429, "Maj": 7430, "recognises": 7431, "encouragement": 7432, "prevented": 7433, "civilians": 7434, "efficiently": 7435, "assessments": 7436, "suggested": 7437, "pato": 7438, "consulted": 7439, "Guant": 7440, "Guatemal": 7441, "chocol": 7442, "atorial": 7443, "experienced": 7444, "students": 7445, "Malay": 7446, "widely": 7447, "simplified": 7448, "productivity": 7449, "Byrne": 7450, "professionals": 7451, "switch": 7452, "Speech": 7453, "donation": 7454, "Diaman": 7455, "consolidated": 7456, "attached": 7457, "genetic": 7458, "meantime": 7459, "reverse": 7460, "Cappato": 7461, "Dimit": 7462, "estimates": 7463, "Sixth": 7464, "fleet": 7465, "devast": 7466, "frequently": 7467, "categories": 7468, "recipro": 7469, "Guidelines": 7470, "travelling": 7471, "biotechnology": 7472, "Somalia": 7473, "relatively": 7474, "draftsman": 7475, "aquaculture": 7476, "pesticides": 7477, "Tajani": 7478, "Conclusions": 7479, "parallel": 7480, "Cunha": 7481, "Cashman": 7482, "picture": 7483, "Kazakhstan": 7484, "Katiforis": 7485, "Wogau": 7486, "Diamantopoulou": 7487, "AN": 7488, "Az": 7489, "Azer": 7490, "Brian": 7491, "Duff": 7492, "Hour": 7493, "Hard": 7494, "LT": 7495, "Loud": 7496, "Person": 7497, "Ter": 7498, "Tri": 7499, "fing": 7500, "fash": 7501, "gic": 7502, "hot": 7503, "loud": 7504, "tes": 7505, "vit": 7506, "went": 7507, "xic": 7508, "zes": 7509, "zhe": 7510, "retail": 7511, "insul": 7512, "inspir": 7513, "attra": 7514, "ione": 7515, "town": 7516, "entation": 7517, "ita": 7518, "arbit": 7519, "ingredi": 7520, "icable": 7521, "leaves": 7522, "story": 7523, "sun": 7524, "ador": 7525, "losing": 7526, "raf": 7527, "rape": 7528, "compromises": 7529, "reporting": 7530, "antly": 7531, "iful": 7532, "reevy": 7533, "Independent": 7534, "regimes": 7535, "rent": 7536, "contents": 7537, "disgrace": 7538, "prag": 7539, "persu": 7540, "perip": 7541, "reassure": 7542, "interoperability": 7543, "asks": 7544, "ipul": 7545, "ownership": 7546, "transposition": 7547, "producer": 7548, "stitution": 7549, "requesting": 7550, "energies": 7551, "Alzhe": 7552, "annes": 7553, "annex": 7554, "draws": 7555, "journey": 7556, "representing": 7557, "vising": 7558, "visited": 7559, "visitors": 7560, "valuation": 7561, "holiday": 7562, "Coordination": 7563, "calcul": 7564, "promotes": 7565, "Several": 7566, "recommends": 7567, "parency": 7568, "causing": 7569, "minds": 7570, "differently": 7571, "identification": 7572, "cultiv": 7573, "corrections": 7574, "unequivoc": 7575, "appeared": 7576, "participated": 7577, "Roy": 7578, "Transparency": 7579, "Peace": 7580, "Canc": 7581, "profits": 7582, "baij": 7583, "advise": 7584, "modification": 7585, "modifications": 7586, "harmonization": 7587, "criterion": 7588, "falling": 7589, "Geb": 7590, "Yesterday": 7591, "Board": 7592, "investigated": 7593, "criticisms": 7594, "revolution": 7595, "Absolute": 7596, "kozy": 7597, "advocates": 7598, "Discharge": 7599, "consolidate": 7600, "translated": 7601, "attaches": 7602, "Helsink": 7603, "Sarkozy": 7604, "estimated": 7605, "splend": 7606, "McCreevy": 7607, "abstention": 7608, "SCE": 7609, "deliberations": 7610, "narrow": 7611, "Hugh": 7612, "Renew": 7613, "Juncker": 7614, "Islamic": 7615, "Equatorial": 7616, "Angel": 7617, "chapter": 7618, "Appointment": 7619, "Arias": 7620, "Initiative": 7621, "organizations": 7622, "intolerable": 7623, "Presentation": 7624, "concessions": 7625, "familiar": 7626, "Ivoire": 7627, "neutral": 7628, "chocolate": 7629, "Azerbaij": 7630, "fashion": 7631, "Alzheimer": 7632, "Helsinki": 7633, "Cur": 7634, "Call": 7635, "Cab": 7636, "Cress": 7637, "Imp": 7638, "Kash": 7639, "Mos": 7640, "Move": 7641, "OEC": 7642, "OSCE": 7643, "Sci": 7644, "TV": 7645, "Text": 7646, "cros": 7647, "gs": 7648, "game": 7649, "iable": 7650, "ls": 7651, "lad": 7652, "mith": 7653, "ov": 7654, "oij": 7655, "rgen": 7656, "saving": 7657, "vare": 7658, "wild": 7659, "woman": 7660, "repression": 7661, "inhuman": 7662, "inating": 7663, "enabled": 7664, "atab": 7665, "rot": 7666, "aris": 7667, "assets": 7668, "omission": 7669, "ression": 7670, "began": 7671, "beaut": 7672, "devote": 7673, "deple": 7674, "lyn": 7675, "concer": 7676, "lift": 7677, "emen": 7678, "uncertainty": 7679, "universities": 7680, "unreserved": 7681, "endum": 7682, "commem": 7683, "workplace": 7684, "workable": 7685, "mail": 7686, "resolute": 7687, "pressed": 7688, "pred": 7689, "pretext": 7690, "duction": 7691, "Thanks": 7692, "Grad": 7693, "earmarked": 7694, "inequality": 7695, "decreas": 7696, "invent": 7697, "invitation": 7698, "Child": 7699, "Chancell": 7700, "attent": 7701, "ignation": 7702, "whenever": 7703, "lesson": 7704, "accorded": 7705, "textiles": 7706, "reductions": 7707, "promising": 7708, "Turco": 7709, "listed": 7710, "findings": 7711, "encourages": 7712, "expenses": 7713, "tonnes": 7714, "holds": 7715, "preparatory": 7716, "Gerard": 7717, "stein": 7718, "hardly": 7719, "iracy": 7720, "experiencing": 7721, "Carlos": 7722, "consistently": 7723, "alongside": 7724, "capitalist": 7725, "Cypri": 7726, "Goals": 7727, "Forest": 7728, "models": 7729, "hoping": 7730, "intelligence": 7731, "Galic": 7732, "Blak": 7733, "smoo": 7734, "logic": 7735, "delivering": 7736, "surprise": 7737, "contradictions": 7738, "disappointment": 7739, "Ferrer": 7740, "unique": 7741, "graphy": 7742, "obstacle": 7743, "executive": 7744, "Meeting": 7745, "pipe": 7746, "vigilance": 7747, "contractual": 7748, "articles": 7749, "democrats": 7750, "abstentions": 7751, "discriminatory": 7752, "tinent": 7753, "website": 7754, "juris": 7755, "Lindqvist": 7756, "TDI": 7757, "nutr": 7758, "philosophy": 7759, "dioxide": 7760, "Daul": 7761, "Carlotti": 7762, "wholly": 7763, "Wuori": 7764, "recruitment": 7765, "Buitenweg": 7766, "giene": 7767, "Pirker": 7768, "splendid": 7769, "Azerbaijan": 7770, "Cresson": 7771, "OECD": 7772, "varez": 7773, "Chancellor": 7774, "Found": 7775, "Gas": 7776, "HA": 7777, "Lip": 7778, "Lagend": 7779, "ON": 7780, "OR": 7781, "Ot": 7782, "Redu": 7783, "Sier": 7784, "Tele": 7785, "Vall": 7786, "afore": 7787, "bner": 7788, "dens": 7789, "divers": 7790, "datab": 7791, "fat": 7792, "tong": 7793, "wre": 7794, "inj": 7795, "inclusive": 7796, "inadmissible": 7797, "anium": 7798, "toxic": 7799, "esh": 7800, "ester": 7801, "itect": 7802, "itably": 7803, "arians": 7804, "restra": 7805, "icing": 7806, "station": 7807, "petr": 7808, "semin": 7809, "depri": 7810, "utter": 7811, "prolong": 7812, "illo": 7813, "whel": 7814, "unilateral": 7815, "hail": 7816, "rier": 7817, "opposes": 7818, "composition": 7819, "complementary": 7820, "apers": 7821, "essor": 7822, "specul": 7823, "heed": 7824, "claimed": 7825, "feas": 7826, "cow": 7827, "Instead": 7828, "blind": 7829, "vier": 7830, "cruel": 7831, "finished": 7832, "hosp": 7833, "council": 7834, "pron": 7835, "prud": 7836, "pertinent": 7837, "perpetr": 7838, "evol": 7839, "taining": 7840, "nationality": 7841, "overwhel": 7842, "Amending": 7843, "empty": 7844, "transfers": 7845, "syn": 7846, "attending": 7847, "planet": 7848, "programming": 7849, "Maria": 7850, "shipping": 7851, "oski": 7852, "confused": 7853, "ranging": 7854, "cracies": 7855, "visor": 7856, "Fraga": 7857, "stepping": 7858, "soldi": 7859, "reforming": 7860, "bonds": 7861, "Corrig": 7862, "harassment": 7863, "instructions": 7864, "buy": 7865, "preventive": 7866, "victory": 7867, "participants": 7868, "Road": 7869, "Transatlantic": 7870, "smaller": 7871, "Adam": 7872, "failing": 7873, "patents": 7874, "McGu": 7875, "kinds": 7876, "Working": 7877, "norm": 7878, "consulting": 7879, "modest": 7880, "foundation": 7881, "dangers": 7882, "Neg": 7883, "threatened": 7884, "navigation": 7885, "namo": 7886, "Iraqi": 7887, "iki": 7888, "determining": 7889, "hygiene": 7890, "Cuban": 7891, "Banglad": 7892, "sale": 7893, "Legisl": 7894, "targeted": 7895, "accounting": 7896, "massac": 7897, "Whitehead": 7898, "exclude": 7899, "Patric": 7900, "Everything": 7901, "pensable": 7902, "Purvis": 7903, "envisage": 7904, "ETA": 7905, "repeatedly": 7906, "slowly": 7907, "eradicate": 7908, "judgments": 7909, "Catal": 7910, "constituents": 7911, "Frahm": 7912, "radioactive": 7913, "rankoski": 7914, "repair": 7915, "Outcome": 7916, "alarming": 7917, "detrimental": 7918, "preferences": 7919, "quarters": 7920, "Virrankoski": 7921, "Wibe": 7922, "Innovation": 7923, "Delegation": 7924, "sentiments": 7925, "deterioration": 7926, "Position": 7927, "hazardous": 7928, "twelve": 7929, "indispensable": 7930, "clauses": 7931, "Malaysia": 7932, "Dimitra": 7933, "Hardstaff": 7934, "Gebhardt": 7935, "Impact": 7936, "Gradin": 7937, "Foundation": 7938, "Lagendijk": 7939, "Sierra": 7940, "aforementioned": 7941, "Asian": 7942, "Bou": 7943, "Cong": 7944, "Fava": 7945, "Ga": 7946, "Gl": 7947, "Hong": 7948, "Kong": 7949, "Kla": 7950, "Mur": 7951, "Opport": 7952, "Pod": 7953, "Pass": 7954, "Te": 7955, "Tor": 7956, "Visa": 7957, "Wa": 7958, "Whe": 7959, "aire": 7960, "dare": 7961, "dair": 7962, "eing": 7963, "garian": 7964, "hide": 7965, "hler": 7966, "ju": 7967, "lining": 7968, "pact": 7969, "ppi": 7970, "scra": 7971, "throw": 7972, "onou": 7973, "reopen": 7974, "instability": 7975, "ansion": 7976, "root": 7977, "asm": 7978, "asser": 7979, "asset": 7980, "resource": 7981, "oting": 7982, "forgive": 7983, "below": 7984, "sees": 7985, "defe": 7986, "decommission": 7987, "conform": 7988, "confront": 7989, "confron": 7990, "lia": 7991, "chet": 7992, "unions": 7993, "shna": 7994, "ghting": 7995, "extrad": 7996, "ardi": 7997, "coins": 7998, "regn": 7999, "EURO": 8000, "disadvanta": 8001, "Quite": 8002, "Reconstruction": 8003, "offences": 8004, "underpin": 8005, "itig": 8006, "mature": 8007, "transplant": 8008, "managing": 8009, "believ": 8010, "directed": 8011, "colon": 8012, "Char": 8013, "informing": 8014, "publicly": 8015, "incin": 8016, "democracies": 8017, "everyday": 8018, "brut": 8019, "initially": 8020, "artific": 8021, "ECSC": 8022, "furthermore": 8023, "Interjection": 8024, "Schr": 8025, "techni": 8026, "Argent": 8027, "solving": 8028, "banning": 8029, "positively": 8030, "investors": 8031, "Execut": 8032, "ESDP": 8033, "cape": 8034, "Enlargement": 8035, "freely": 8036, "expansion": 8037, "improves": 8038, "Robles": 8039, "Anna": 8040, "wake": 8041, "suggests": 8042, "Peijs": 8043, "availability": 8044, "focuses": 8045, "engage": 8046, "engine": 8047, "north": 8048, "steel": 8049, "entering": 8050, "burdens": 8051, "avoided": 8052, "appreciated": 8053, "porno": 8054, "interpreted": 8055, "gladly": 8056, "delayed": 8057, "capitalism": 8058, "Bulgarian": 8059, "emerged": 8060, "Cushna": 8061, "functions": 8062, "coordinating": 8063, "revise": 8064, "frontiers": 8065, "medicine": 8066, "hoped": 8067, "occupied": 8068, "imperative": 8069, "Moder": 8070, "Blair": 8071, "architect": 8072, "nationally": 8073, "Rothley": 8074, "optimistic": 8075, "mobilise": 8076, "mobilisation": 8077, "Institute": 8078, "formulated": 8079, "Business": 8080, "lifting": 8081, "Technical": 8082, "Radical": 8083, "kopoulos": 8084, "licences": 8085, "ignore": 8086, "Erika": 8087, "touch": 8088, "enthusiasm": 8089, "returned": 8090, "component": 8091, "Recovery": 8092, "persecution": 8093, "fulfilled": 8094, "Kauppi": 8095, "Violence": 8096, "Happy": 8097, "Keyser": 8098, "propaganda": 8099, "magnific": 8100, "robust": 8101, "stringent": 8102, "Jackson": 8103, "Professor": 8104, "Cotonou": 8105, "finger": 8106, "ingredients": 8107, "peripheral": 8108, "arisen": 8109, "concerted": 8110, "soldiers": 8111, "Dimitrakopoulos": 8112, "Cushnahan": 8113, "Breyer": 8114, "Cre": 8115, "Camp": 8116, "Did": 8117, "Dear": 8118, "Evaluation": 8119, "Gro": 8120, "Kel": 8121, "Mess": 8122, "affair": 8123, "eu": 8124, "liter": 8125, "lvarez": 8126, "mort": 8127, "oli": 8128, "pes": 8129, "pregn": 8130, "sme": 8131, "tone": 8132, "trem": 8133, "ube": 8134, "thetic": 8135, "recall": 8136, "inational": 8137, "input": 8138, "inness": 8139, "ancy": 8140, "itives": 8141, "andes": 8142, "stal": 8143, "veterinary": 8144, "selection": 8145, "concise": 8146, "sures": 8147, "ams": 8148, "agg": 8149, "uranium": 8150, "Eurojust": 8151, "polet": 8152, "shar": 8153, "rific": 8154, "esty": 8155, "irrespective": 8156, "cile": 8157, "apolit": 8158, "bled": 8159, "bling": 8160, "disappear": 8161, "providers": 8162, "Rehn": 8163, "underlines": 8164, "safer": 8165, "Conduct": 8166, "airline": 8167, "congratulated": 8168, "serves": 8169, "financially": 8170, "phy": 8171, "foster": 8172, "subsequently": 8173, "Anton": 8174, "Markov": 8175, "shipbuilding": 8176, "cells": 8177, "desired": 8178, "mium": 8179, "thenburg": 8180, "Togo": 8181, "realities": 8182, "simpl": 8183, "Interim": 8184, "seriousness": 8185, "priorit": 8186, "wars": 8187, "honoured": 8188, "resulted": 8189, "culos": 8190, "missed": 8191, "recognising": 8192, "expecting": 8193, "expired": 8194, "Governance": 8195, "showed": 8196, "handed": 8197, "eurozone": 8198, "packaging": 8199, "limiting": 8200, "kindly": 8201, "momentum": 8202, "creative": 8203, "sentences": 8204, "Strategic": 8205, "renewal": 8206, "interpret": 8207, "ika": 8208, "Gothenburg": 8209, "drift": 8210, "larger": 8211, "frontier": 8212, "abolished": 8213, "classes": 8214, "classification": 8215, "tware": 8216, "milest": 8217, "protests": 8218, "punished": 8219, "Gale": 8220, "Everyone": 8221, "Fifth": 8222, "killed": 8223, "preserving": 8224, "execution": 8225, "season": 8226, "incentive": 8227, "Danube": 8228, "warnings": 8229, "comparison": 8230, "journalist": 8231, "inspections": 8232, "Schmidt": 8233, "hundreds": 8234, "Napolet": 8235, "distinguish": 8236, "Farage": 8237, "rectify": 8238, "reconcile": 8239, "struggle": 8240, "batim": 8241, "false": 8242, "cornerstone": 8243, "EGF": 8244, "bridge": 8245, "Larrea": 8246, "troops": 8247, "disparities": 8248, "mainstreaming": 8249, "Ramos": 8250, "Personally": 8251, "pragmatic": 8252, "Scientific": 8253, "tongue": 8254, "overwhelming": 8255, "McGuinness": 8256, "Bangladesh": 8257, "Patricia": 8258, "Opportunities": 8259, "dairy": 8260, "magnificent": 8261, "Napoletano": 8262, "AR": 8263, "Ain": 8264, "Apart": 8265, "Azo": 8266, "Bes": 8267, "Bill": 8268, "Ear": 8269, "EEA": 8270, "GSP": 8271, "Lel": 8272, "Link": 8273, "Lyn": 8274, "LIF": 8275, "Men": 8276, "Mic": 8277, "Mira": 8278, "Neves": 8279, "Naval": 8280, "Napolit": 8281, "Ol": 8282, "Open": 8283, "Pit": 8284, "Rand": 8285, "Smith": 8286, "Tever": 8287, "Wiers": 8288, "Yemen": 8289, "dates": 8290, "fuge": 8291, "mad": 8292, "piracy": 8293, "scan": 8294, "tical": 8295, "wages": 8296, "western": 8297, "yards": 8298, "zio": 8299, "reput": 8300, "aton": 8301, "atro": 8302, "ases": 8303, "icans": 8304, "stations": 8305, "storm": 8306, "Their": 8307, "eme": 8308, "love": 8309, "una": 8310, "hael": 8311, "shed": 8312, "opolit": 8313, "acced": 8314, "iesel": 8315, "Paris": 8316, "Partic": 8317, "umber": 8318, "akes": 8319, "udi": 8320, "istance": 8321, "Unless": 8322, "dissemin": 8323, "ipation": 8324, "match": 8325, "guide": 8326, "Sub": 8327, "inventions": 8328, "ressing": 8329, "ultimate": 8330, "Finu": 8331, "Beij": 8332, "allowance": 8333, "allowances": 8334, "commendable": 8335, "organized": 8336, "aiming": 8337, "visible": 8338, "crimin": 8339, "senior": 8340, "deny": 8341, "denied": 8342, "Leone": 8343, "parliamentarians": 8344, "biome": 8345, "costly": 8346, "definitions": 8347, "generated": 8348, "headed": 8349, "assessed": 8350, "Administr": 8351, "treaties": 8352, "sooner": 8353, "enterprise": 8354, "circulation": 8355, "Neither": 8356, "Improving": 8357, "Access": 8358, "Peru": 8359, "condemning": 8360, "advances": 8361, "Sylla": 8362, "emerging": 8363, "worthwhile": 8364, "Hern": 8365, "condemns": 8366, "grade": 8367, "Mollar": 8368, "reflecting": 8369, "deploy": 8370, "launching": 8371, "Karaman": 8372, "staying": 8373, "substantive": 8374, "punish": 8375, "ridiculous": 8376, "courageous": 8377, "flooding": 8378, "insisted": 8379, "gained": 8380, "Undertaking": 8381, "cular": 8382, "compliments": 8383, "contacts": 8384, "Directives": 8385, "shape": 8386, "attach": 8387, "confirms": 8388, "scen": 8389, "learnt": 8390, "occurred": 8391, "teaching": 8392, "democratisation": 8393, "delete": 8394, "deleted": 8395, "belonging": 8396, "lengthy": 8397, "grassroots": 8398, "proportionate": 8399, "swiftly": 8400, "agua": 8401, "symbolic": 8402, "cofinancing": 8403, "OLAF": 8404, "vegetable": 8405, "machine": 8406, "remedy": 8407, "entails": 8408, "apparently": 8409, "officers": 8410, "Regulations": 8411, "Scottish": 8412, "motivated": 8413, "Electronic": 8414, "software": 8415, "installations": 8416, "Wolf": 8417, "cautious": 8418, "Andrews": 8419, "McCartin": 8420, "surrounding": 8421, "arbitr": 8422, "Angelilli": 8423, "Cabrol": 8424, "beautiful": 8425, "jurisdiction": 8426, "wreck": 8427, "Negoti": 8428, "disadvantaged": 8429, "incineration": 8430, "Executive": 8431, "tremend": 8432, "culosis": 8433, "Galeote": 8434, "Ainardi": 8435, "Lello": 8436, "LIFE": 8437, "Napolitano": 8438, "Teverson": 8439, "Wiersma": 8440, "Participation": 8441, "Beijing": 8442, "Karamanou": 8443, "Bre": 8444, "Creat": 8445, "CIT": 8446, "DC": 8447, "Each": 8448, "Fort": 8449, "Hon": 8450, "His": 8451, "Have": 8452, "Mathies": 8453, "Od": 8454, "Pla": 8455, "Sun": 8456, "Sav": 8457, "Tob": 8458, "Water": 8459, "Wulf": 8460, "aard": 8461, "aff": 8462, "cz": 8463, "cis": 8464, "ditions": 8465, "eag": 8466, "hat": 8467, "hof": 8468, "ient": 8469, "kers": 8470, "pity": 8471, "poul": 8472, "papers": 8473, "rton": 8474, "saga": 8475, "tries": 8476, "vague": 8477, "wal": 8478, "wall": 8479, "yield": 8480, "thirty": 8481, "thening": 8482, "remit": 8483, "reconsider": 8484, "remem": 8485, "relocation": 8486, "inner": 8487, "incomes": 8488, "incorrect": 8489, "inhabit": 8490, "anx": 8491, "enforce": 8492, "alter": 8493, "escal": 8494, "assembly": 8495, "stree": 8496, "pez": 8497, "search": 8498, "prostitution": 8499, "lio": 8500, "sums": 8501, "weather": 8502, "kel": 8503, "image": 8504, "imbalances": 8505, "urch": 8506, "unjust": 8507, "havens": 8508, "ray": 8509, "riage": 8510, "quin": 8511, "iese": 8512, "Parish": 8513, "umn": 8514, "ived": 8515, "coach": 8516, "workforce": 8517, "udes": 8518, "prescri": 8519, "Until": 8520, "disrup": 8521, "stric": 8522, "anywhere": 8523, "Stand": 8524, "Streng": 8525, "ritor": 8526, "Rein": 8527, "undering": 8528, "newly": 8529, "clock": 8530, "ideological": 8531, "Conditions": 8532, "ckling": 8533, "prize": 8534, "seless": 8535, "invited": 8536, "Cher": 8537, "decline": 8538, "box": 8539, "hereby": 8540, "Marg": 8541, "nero": 8542, "authorised": 8543, "petrol": 8544, "happ": 8545, "Albert": 8546, "signature": 8547, "ksson": 8548, "surplus": 8549, "Turmes": 8550, "fficiency": 8551, "reformed": 8552, "banned": 8553, "Right": 8554, "harsh": 8555, "mistaken": 8556, "identally": 8557, "Heaton": 8558, "passing": 8559, "growers": 8560, "expressly": 8561, "cheap": 8562, "clarifications": 8563, "delivery": 8564, "Andr": 8565, "generate": 8566, "responding": 8567, "demanded": 8568, "assessing": 8569, "satisfy": 8570, "submitting": 8571, "Canary": 8572, "focusing": 8573, "continuous": 8574, "Works": 8575, "endorses": 8576, "turns": 8577, "Barrot": 8578, "Bali": 8579, "Burg": 8580, "comprehensible": 8581, "integral": 8582, "Martine": 8583, "gani": 8584, "drive": 8585, "vigor": 8586, "investigations": 8587, "ensured": 8588, "reinforcing": 8589, "weaknesses": 8590, "adapted": 8591, "ethics": 8592, "Paas": 8593, "publish": 8594, "relief": 8595, "donors": 8596, "preferred": 8597, "characterised": 8598, "Bonde": 8599, "pensioners": 8600, "forestation": 8601, "ietz": 8602, "killing": 8603, "exceptionally": 8604, "exciting": 8605, "hunting": 8606, "endeavours": 8607, "Natura": 8608, "fleets": 8609, "nomination": 8610, "nominations": 8611, "Relating": 8612, "Institutional": 8613, "Mihail": 8614, "infringements": 8615, "eradication": 8616, "categorically": 8617, "Incidentally": 8618, "stimulate": 8619, "conventional": 8620, "Eriksson": 8621, "scandalous": 8622, "Francis": 8623, "Welcome": 8624, "monopoly": 8625, "Gahrton": 8626, "autonomous": 8627, "Railway": 8628, "ambiguous": 8629, "Sky": 8630, "Philipp": 8631, "Hamas": 8632, "Nicar": 8633, "deputising": 8634, "militarisation": 8635, "subscribe": 8636, "Certainly": 8637, "routes": 8638, "Calendar": 8639, "inspired": 8640, "duration": 8641, "champion": 8642, "settled": 8643, "Guatemala": 8644, "rgensen": 8645, "Lipietz": 8646, "hospital": 8647, "decommissioning": 8648, "pornography": 8649, "Azores": 8650, "Randzio": 8651, "Finuoli": 8652, "Plath": 8653, "poultry": 8654, "inhabitants": 8655, "Athen": 8656, "Bu": 8657, "Boud": 8658, "Bah": 8659, "Bjer": 8660, "Cult": 8661, "Cris": 8662, "Dy": 8663, "FP": 8664, "Gut": 8665, "Gill": 8666, "Gians": 8667, "Il": 8668, "Jord": 8669, "Kall": 8670, "Mier": 8671, "Nom": 8672, "Nik": 8673, "Pom": 8674, "Plo": 8675, "Pac": 8676, "Rac": 8677, "Rack": 8678, "Si": 8679, "Simp": 8680, "bk": 8681, "diesel": 8682, "flight": 8683, "lunch": 8684, "ohr": 8685, "rical": 8686, "wage": 8687, "thews": 8688, "rew": 8689, "rewording": 8690, "repressive": 8691, "insecurity": 8692, "ancies": 8693, "enci": 8694, "eness": 8695, "isse": 8696, "alive": 8697, "tosh": 8698, "esy": 8699, "asing": 8700, "aspir": 8701, "dete": 8702, "lipe": 8703, "aming": 8704, "adm": 8705, "implies": 8706, "tawa": 8707, "ourable": 8708, "voters": 8709, "lock": 8710, "ultra": 8711, "urity": 8712, "urdy": 8713, "unlike": 8714, "units": 8715, "haul": 8716, "verify": 8717, "byl": 8718, "irresponsible": 8719, "abroad": 8720, "accompany": 8721, "nobyl": 8722, "geopolit": 8723, "Weber": 8724, "cod": 8725, "Intosh": 8726, "regaard": 8727, "blame": 8728, "auqu": 8729, "premium": 8730, "halt": 8731, "cry": 8732, "disappointing": 8733, "disarmament": 8734, "Stub": 8735, "Sturdy": 8736, "resolutiontabled": 8737, "earning": 8738, "underlined": 8739, "gene": 8740, "genous": 8741, "internationally": 8742, "redraf": 8743, "ineffect": 8744, "airport": 8745, "deciding": 8746, "frust": 8747, "additives": 8748, "iana": 8749, "minimal": 8750, "oked": 8751, "worded": 8752, "artney": 8753, "signals": 8754, "Together": 8755, "backs": 8756, "distur": 8757, "carious": 8758, "Scho": 8759, "Region": 8760, "investing": 8761, "understandable": 8762, "Eng": 8763, "miss": 8764, "Ministerial": 8765, "MEDA": 8766, "tunnel": 8767, "impunity": 8768, "democratically": 8769, "lacks": 8770, "eken": 8771, "Order": 8772, "broadband": 8773, "treating": 8774, "patri": 8775, "continuity": 8776, "McIntosh": 8777, "repeal": 8778, "silent": 8779, "withdrawing": 8780, "deterior": 8781, "harmony": 8782, "Improve": 8783, "threatening": 8784, "Norway": 8785, "Carnero": 8786, "demonstrations": 8787, "demonstrators": 8788, "ratsa": 8789, "Felipe": 8790, "indicates": 8791, "multinational": 8792, "Macro": 8793, "Macartney": 8794, "convince": 8795, "pidla": 8796, "autumn": 8797, "exploit": 8798, "runs": 8799, "mutually": 8800, "sensitivity": 8801, "exceptions": 8802, "gather": 8803, "Karl": 8804, "Laeken": 8805, "strive": 8806, "contrast": 8807, "complied": 8808, "Valle": 8809, "Wallis": 8810, "Ship": 8811, "schedule": 8812, "courtesy": 8813, "EDF": 8814, "borne": 8815, "Redondo": 8816, "Biological": 8817, "tractors": 8818, "pillars": 8819, "enables": 8820, "accused": 8821, "anticipated": 8822, "birthday": 8823, "Catania": 8824, "departments": 8825, "distinguished": 8826, "drinking": 8827, "prisons": 8828, "volunteering": 8829, "Bushill": 8830, "accomplished": 8831, "privileged": 8832, "irregularities": 8833, "derogation": 8834, "discrepan": 8835, "Gorsel": 8836, "Hyland": 8837, "prerequisite": 8838, "variety": 8839, "multilingualism": 8840, "reciprocity": 8841, "cultivation": 8842, "Movement": 8843, "crossing": 8844, "lynn": 8845, "unreservedly": 8846, "Cypriot": 8847, "Ottawa": 8848, "massacre": 8849, "brutal": 8850, "milestone": 8851, "Linkohr": 8852, "criminals": 8853, "biometr": 8854, "Honourable": 8855, "stricter": 8856, "Chernobyl": 8857, "Philippines": 8858, "Bjerregaard": 8859, "Dybk": 8860, "Giansily": 8861, "Plooij": 8862, "Simpson": 8863, "Stubb": 8864, "Bob": 8865, "CR": 8866, "Dep": 8867, "Deva": 8868, "Erit": 8869, "FA": 8870, "Flynn": 8871, "Klam": 8872, "Kratsa": 8873, "Lord": 8874, "Liese": 8875, "Mot": 8876, "Mug": 8877, "Oj": 8878, "Pin": 8879, "Sain": 8880, "Taking": 8881, "Uy": 8882, "Winter": 8883, "ares": 8884, "bian": 8885, "bold": 8886, "bols": 8887, "cens": 8888, "dol": 8889, "een": 8890, "eck": 8891, "fought": 8892, "jen": 8893, "kid": 8894, "pu": 8895, "pace": 8896, "pig": 8897, "rf": 8898, "rhe": 8899, "swe": 8900, "tem": 8901, "tank": 8902, "uous": 8903, "yss": 8904, "thematic": 8905, "reve": 8906, "reloc": 8907, "anational": 8908, "anger": 8909, "anzes": 8910, "enrich": 8911, "enberg": 8912, "enshr": 8913, "attain": 8914, "isk": 8915, "orum": 8916, "alum": 8917, "altogether": 8918, "itudes": 8919, "ara": 8920, "aria": 8921, "Thail": 8922, "Thyss": 8923, "stating": 8924, "stipul": 8925, "fort": 8926, "bean": 8927, "pegna": 8928, "iden": 8929, "idential": 8930, "ctic": 8931, "decess": 8932, "proach": 8933, "proactive": 8934, "supr": 8935, "tape": 8936, "residents": 8937, "exempl": 8938, "unde": 8939, "undeclared": 8940, "enders": 8941, "rak": 8942, "shore": 8943, "quorum": 8944, "oping": 8945, "usz": 8946, "mere": 8947, "icher": 8948, "ichester": 8949, "ife": 8950, "fell": 8951, "commence": 8952, "Inquiry": 8953, "blat": 8954, "bless": 8955, "viability": 8956, "prejud": 8957, "predecess": 8958, "disagreement": 8959, "proves": 8960, "province": 8961, "uphold": 8962, "Groups": 8963, "agreeing": 8964, "reassu": 8965, "Refuge": 8966, "issuing": 8967, "elk": 8968, "etus": 8969, "Suanzes": 8970, "manif": 8971, "clusion": 8972, "produces": 8973, "Chichester": 8974, "attended": 8975, "fix": 8976, "file": 8977, "wanting": 8978, "planes": 8979, "substitut": 8980, "refusing": 8981, "Soci": 8982, "Margri": 8983, "compound": 8984, "lawy": 8985, "lawful": 8986, "rances": 8987, "realism": 8988, "survey": 8989, "roadmap": 8990, "carriers": 8991, "Arms": 8992, "crimination": 8993, "holes": 8994, "sixth": 8995, "regulating": 8996, "See": 8997, "Riis": 8998, "Verhof": 8999, "introduct": 9000, "ESF": 9001, "Corrie": 9002, "misleading": 9003, "finds": 9004, "grown": 9005, "delivered": 9006, "expensive": 9007, "Rothe": 9008, "assistants": 9009, "handled": 9010, "emphasises": 9011, "electrical": 9012, "telling": 9013, "repeating": 9014, "stopped": 9015, "groundwater": 9016, "waterway": 9017, "depending": 9018, "relevance": 9019, "threaten": 9020, "Carib": 9021, "Carpegna": 9022, "Americans": 9023, "potentially": 9024, "charging": 9025, "starts": 9026, "Fishing": 9027, "bloc": 9028, "connections": 9029, "hydro": 9030, "Langu": 9031, "Vigo": 9032, "arrangement": 9033, "dimensions": 9034, "division": 9035, "publication": 9036, "eliminating": 9037, "performing": 9038, "EPP": 9039, "Moz": 9040, "linson": 9041, "Valenci": 9042, "proportional": 9043, "compatibility": 9044, "Ferreira": 9045, "deficits": 9046, "preserved": 9047, "automotive": 9048, "Package": 9049, "attempting": 9050, "prosperous": 9051, "teachers": 9052, "oriented": 9053, "Daniel": 9054, "symbols": 9055, "alike": 9056, "Busquin": 9057, "counterfeit": 9058, "entrepreneurs": 9059, "Casaca": 9060, "humour": 9061, "Multiannual": 9062, "decentral": 9063, "Tomlinson": 9064, "prohibition": 9065, "awarded": 9066, "updated": 9067, "Supervisor": 9068, "vegetables": 9069, "contamination": 9070, "monopolies": 9071, "ASEAN": 9072, "isolation": 9073, "Matthews": 9074, "Drugs": 9075, "doctors": 9076, "undermined": 9077, "Promoting": 9078, "inevitable": 9079, "Assistance": 9080, "psych": 9081, "embryos": 9082, "privatisation": 9083, "vitally": 9084, "Kashmir": 9085, "pipeline": 9086, "normally": 9087, "Congress": 9088, "techniques": 9089, "architecture": 9090, "simpler": 9091, "Lynne": 9092, "Strengthening": 9093, "Margallo": 9094, "Martinez": 9095, "Nicaragua": 9096, "Boudjen": 9097, "Klamt": 9098, "rhetor": 9099, "Thailand": 9100, "Thyssen": 9101, "supranational": 9102, "exemplary": 9103, "Margrietus": 9104, "Verhofstadt": 9105, "Caribbean": 9106, "Boudjenah": 9107, "Buz": 9108, "Brie": 9109, "Du": 9110, "Dur": 9111, "Eph": 9112, "Fried": 9113, "FTA": 9114, "Hend": 9115, "Jer": 9116, "Jim": 9117, "Kon": 9118, "Killi": 9119, "Lom": 9120, "Lew": 9121, "Lalum": 9122, "Mut": 9123, "Mour": 9124, "Much": 9125, "Nally": 9126, "Oli": 9127, "Oper": 9128, "Prest": 9129, "Rem": 9130, "Sen": 9131, "Sou": 9132, "Stee": 9133, "Shar": 9134, "Surely": 9135, "Sauqu": 9136, "Top": 9137, "TAC": 9138, "Terr": 9139, "aero": 9140, "cattle": 9141, "dden": 9142, "drew": 9143, "gam": 9144, "gare": 9145, "hur": 9146, "kin": 9147, "mitig": 9148, "nit": 9149, "nity": 9150, "oke": 9151, "oise": 9152, "pho": 9153, "rrez": 9154, "spar": 9155, "scar": 9156, "tens": 9157, "useless": 9158, "zones": 9159, "remot": 9160, "recession": 9161, "remid": 9162, "reproductive": 9163, "recycl": 9164, "reunification": 9165, "inos": 9166, "issl": 9167, "entities": 9168, "lea": 9169, "lem": 9170, "stabled": 9171, "iler": 9172, "idity": 9173, "seated": 9174, "selling": 9175, "degrad": 9176, "liqu": 9177, "sudden": 9178, "iller": 9179, "white": 9180, "load": 9181, "unn": 9182, "unavoid": 9183, "unprecedent": 9184, "notion": 9185, "pling": 9186, "accommod": 9187, "cigare": 9188, "worried": 9189, "parad": 9190, "paramount": 9191, "spective": 9192, "intra": 9193, "clam": 9194, "ifiable": 9195, "fee": 9196, "fewer": 9197, "cosme": 9198, "Insurance": 9199, "Independence": 9200, "pretation": 9201, "ouses": 9202, "crates": 9203, "avoured": 9204, "disability": 9205, "displaced": 9206, "strange": 9207, "resolutionstabled": 9208, "print": 9209, "prints": 9210, "indul": 9211, "elab": 9212, "etting": 9213, "ettle": 9214, "assass": 9215, "grating": 9216, "gratory": 9217, "gues": 9218, "overseas": 9219, "frame": 9220, "lah": 9221, "chances": 9222, "minent": 9223, "attitudes": 9224, "refrain": 9225, "Marian": 9226, "Marques": 9227, "petitions": 9228, "subjected": 9229, "sectoral": 9230, "anni": 9231, "confidential": 9232, "processed": 9233, "surface": 9234, "socially": 9235, "visiting": 9236, "Interinstitutional": 9237, "Interpretation": 9238, "Arctic": 9239, "progressive": 9240, "sold": 9241, "recover": 9242, "denoun": 9243, "bourne": 9244, "defer": 9245, "capabilities": 9246, "venture": 9247, "practically": 9248, "Corn": 9249, "facility": 9250, "researchers": 9251, "globalised": 9252, "ilitation": 9253, "passports": 9254, "explanatory": 9255, "challenging": 9256, "die": 9257, "feels": 9258, "feelings": 9259, "Joh": 9260, "Compet": 9261, "responded": 9262, "traditions": 9263, "posts": 9264, "McNally": 9265, "electorate": 9266, "credits": 9267, "bluefin": 9268, "guidance": 9269, "Guaran": 9270, "Respon": 9271, "harmonising": 9272, "circul": 9273, "documentation": 9274, "atories": 9275, "linking": 9276, "subsidy": 9277, "Feira": 9278, "radically": 9279, "radiation": 9280, "indicative": 9281, "weekend": 9282, "stressing": 9283, "Point": 9284, "Poos": 9285, "returns": 9286, "clarifying": 9287, "modernise": 9288, "Newens": 9289, "originally": 9290, "Vienna": 9291, "criticised": 9292, "sends": 9293, "Sittings": 9294, "Turkmen": 9295, "film": 9296, "breaking": 9297, "referendums": 9298, "Debate": 9299, "divide": 9300, "thoroughly": 9301, "description": 9302, "Gargani": 9303, "zero": 9304, "lays": 9305, "donor": 9306, "trials": 9307, "proportions": 9308, "enjoyed": 9309, "Industrial": 9310, "contradictory": 9311, "Secretariat": 9312, "Helmer": 9313, "restored": 9314, "Stockmann": 9315, "Observ": 9316, "boosting": 9317, "hypocritical": 9318, "fifteen": 9319, "spectrum": 9320, "Capital": 9321, "Migration": 9322, "trialogue": 9323, "Democracies": 9324, "affordable": 9325, "Lebanese": 9326, "dedicated": 9327, "stimulating": 9328, "constituency": 9329, "conceal": 9330, "adjustments": 9331, "updating": 9332, "survival": 9333, "Sanders": 9334, "Pasty": 9335, "allegations": 9336, "contaminated": 9337, "redundant": 9338, "ASEM": 9339, "Kreissl": 9340, "route": 9341, "Facility": 9342, "Greater": 9343, "detained": 9344, "explicitly": 9345, "tourist": 9346, "exhaustive": 9347, "cotton": 9348, "homosexuals": 9349, "platform": 9350, "channels": 9351, "Establishment": 9352, "Markets": 9353, "IMF": 9354, "stabil": 9355, "dismantling": 9356, "Absolutely": 9357, "Renewable": 9358, "restraint": 9359, "utterly": 9360, "scrap": 9361, "extradition": 9362, "scanners": 9363, "tremendous": 9364, "Savary": 9365, "Athens": 9366, "Cultural": 9367, "Guti": 9368, "geopolitical": 9369, "redrafting": 9370, "deteriorating": 9371, "Mugabe": 9372, "Winterbourne": 9373, "dollar": 9374, "rfler": 9375, "reveals": 9376, "enshrined": 9377, "underest": 9378, "introductory": 9379, "rhetoric": 9380, "Buzek": 9381, "Ephremid": 9382, "Killilea": 9383, "Lalumi": 9384, "Mutual": 9385, "Prestige": 9386, "Steel": 9387, "Sauquillo": 9388, "unprecedented": 9389, "cosmetic": 9390, "Ephremidis": 9391, "Ben": 9392, "Caud": 9393, "Esk": 9394, "Ebner": 9395, "Games": 9396, "Io": 9397, "Ken": 9398, "Kir": 9399, "Lage": 9400, "Mun": 9401, "Mav": 9402, "Morgan": 9403, "Neach": 9404, "OK": 9405, "Offic": 9406, "Pay": 9407, "Pau": 9408, "Ra": 9409, "River": 9410, "Spen": 9411, "TR": 9412, "Ty": 9413, "Ten": 9414, "Tro": 9415, "Terror": 9416, "Voc": 9417, "VIS": 9418, "affirm": 9419, "bun": 9420, "bans": 9421, "cuse": 9422, "fan": 9423, "fying": 9424, "hreb": 9425, "ios": 9426, "mper": 9427, "nitz": 9428, "pull": 9429, "sir": 9430, "smar": 9431, "vod": 9432, "wines": 9433, "onic": 9434, "remin": 9435, "remun": 9436, "istry": 9437, "edo": 9438, "roph": 9439, "andowski": 9440, "ark": 9441, "rests": 9442, "icit": 9443, "illet": 9444, "vez": 9445, "idis": 9446, "sely": 9447, "seize": 9448, "util": 9449, "amed": 9450, "advis": 9451, "advisory": 9452, "impris": 9453, "charter": 9454, "emit": 9455, "uries": 9456, "urges": 9457, "urging": 9458, "posure": 9459, "unified": 9460, "shop": 9461, "notification": 9462, "opoulos": 9463, "nell": 9464, "berculosis": 9465, "meal": 9466, "ichet": 9467, "grand": 9468, "aps": 9469, "Weapons": 9470, "Weiler": 9471, "heiro": 9472, "outbreak": 9473, "Councils": 9474, "command": 9475, "sighted": 9476, "oney": 9477, "Unlike": 9478, "authen": 9479, "viate": 9480, "Nobody": 9481, "prez": 9482, "preference": 9483, "precarious": 9484, "rown": 9485, "finite": 9486, "hostage": 9487, "formulation": 9488, "counts": 9489, "provoc": 9490, "cycle": 9491, "prime": 9492, "earn": 9493, "astically": 9494, "undersigned": 9495, "els": 9496, "evolution": 9497, "Provan": 9498, "genic": 9499, "gencies": 9500, "internet": 9501, "matically": 9502, "assisting": 9503, "congratulates": 9504, "transmit": 9505, "manag": 9506, "addam": 9507, "laundering": 9508, "served": 9509, "servants": 9510, "obli": 9511, "inval": 9512, "osevic": 9513, "ultane": 9514, "themes": 9515, "suspic": 9516, "Formal": 9517, "Mark": 9518, "balgs": 9519, "Deprez": 9520, "Almun": 9521, "desper": 9522, "mira": 9523, "excellence": 9524, "signatures": 9525, "afterwards": 9526, "shortened": 9527, "simultane": 9528, "letters": 9529, "representations": 9530, "communaut": 9531, "Scheme": 9532, "casts": 9533, "Arco": 9534, "mentioning": 9535, "frameworks": 9536, "Secur": 9537, "defended": 9538, "Extension": 9539, "Excuse": 9540, "capt": 9541, "combine": 9542, "activists": 9543, "differenti": 9544, "MED": 9545, "Trichet": 9546, "expul": 9547, "timber": 9548, "Britt": 9549, "tellers": 9550, "guiding": 9551, "modes": 9552, "maintains": 9553, "innovations": 9554, "Need": 9555, "Sections": 9556, "named": 9557, "barbar": 9558, "avoiding": 9559, "gases": 9560, "ottnitz": 9561, "audit": 9562, "chairmen": 9563, "ashing": 9564, "Ukrainian": 9565, "earliest": 9566, "salaries": 9567, "analyse": 9568, "Lange": 9569, "label": 9570, "rophe": 9571, "extends": 9572, "sterling": 9573, "defenders": 9574, "separately": 9575, "weaken": 9576, "Muslim": 9577, "grave": 9578, "deployment": 9579, "slaughter": 9580, "conducting": 9581, "heartfelt": 9582, "strikes": 9583, "EPAs": 9584, "advocated": 9585, "Latvia": 9586, "fears": 9587, "Blottnitz": 9588, "consolidation": 9589, "Bloch": 9590, "Merry": 9591, "archy": 9592, "murdered": 9593, "racist": 9594, "manufacturing": 9595, "structured": 9596, "score": 9597, "homophobia": 9598, "precedence": 9599, "Tibetan": 9600, "teacher": 9601, "tolerate": 9602, "Holte": 9603, "devices": 9604, "applauded": 9605, "sadly": 9606, "ambique": 9607, "taxpayer": 9608, "straightforward": 9609, "ecosystems": 9610, "Radwan": 9611, "humans": 9612, "quantity": 9613, "gaps": 9614, "tuberculosis": 9615, "accusations": 9616, "convictions": 9617, "commodity": 9618, "Alexander": 9619, "indirectly": 9620, "Neyts": 9621, "kovsk": 9622, "chaired": 9623, "Supervisory": 9624, "Sandb": 9625, "illustrates": 9626, "redundancies": 9627, "Gahler": 9628, "autonomy": 9629, "Milosevic": 9630, "Stevens": 9631, "convenience": 9632, "exercised": 9633, "catastroph": 9634, "catastrophe": 9635, "wheeled": 9636, "eligibility": 9637, "hibit": 9638, "arrested": 9639, "Maghreb": 9640, "seeds": 9641, "extremism": 9642, "Australia": 9643, "Piebalgs": 9644, "mugg": 9645, "atmosphere": 9646, "neoliberal": 9647, "devastating": 9648, "Calls": 9649, "depleted": 9650, "deprived": 9651, "Legislative": 9652, "Argentina": 9653, "Creation": 9654, "arbitrary": 9655, "escalation": 9656, "Albertini": 9657, "Crisis": 9658, "Jordan": 9659, "Dybkj": 9660, "Pinheiro": 9661, "Society": 9662, "Mozambique": 9663, "Lewandowski": 9664, "Moura": 9665, "ettlement": 9666, "Johannes": 9667, "Guarantee": 9668, "Turkmenistan": 9669, "Caudron": 9670, "Mavrom": 9671, "Neachtain": 9672, "Official": 9673, "Spencer": 9674, "imprisonment": 9675, "Almunia": 9676, "AB": 9677, "Aut": 9678, "Abo": 9679, "Bay": 9680, "Ced": 9681, "CMO": 9682, "Due": 9683, "Duis": 9684, "Diversities": 9685, "Eigh": 9686, "Efficiency": 9687, "FY": 9688, "Five": 9689, "Fail": 9690, "Gh": 9691, "Gulf": 9692, "Hist": 9693, "Hague": 9694, "Horn": 9695, "IX": 9696, "Jud": 9697, "James": 9698, "Kh": 9699, "Kou": 9700, "Khad": 9701, "Long": 9702, "Mis": 9703, "RS": 9704, "Svens": 9705, "Tsaga": 9706, "Telk": 9707, "Uz": 9708, "Vidal": 9709, "aus": 9710, "ault": 9711, "bic": 9712, "ding": 9713, "dread": 9714, "favoured": 9715, "gross": 9716, "hinder": 9717, "kistan": 9718, "lament": 9719, "lings": 9720, "master": 9721, "nap": 9722, "olig": 9723, "page": 9724, "rm": 9725, "rgy": 9726, "squ": 9727, "sess": 9728, "scour": 9729, "taste": 9730, "ught": 9731, "vary": 9732, "zel": 9733, "online": 9734, "rehab": 9735, "repatri": 9736, "injur": 9737, "incomprehensible": 9738, "enlarge": 9739, "enforced": 9740, "isan": 9741, "alon": 9742, "alliance": 9743, "altar": 9744, "itta": 9745, "edge": 9746, "resort": 9747, "stup": 9748, "ilty": 9749, "became": 9750, "bekistan": 9751, "secular": 9752, "dece": 9753, "deforestation": 9754, "concep": 9755, "conventions": 9756, "sunam": 9757, "wear": 9758, "weap": 9759, "agne": 9760, "unclear": 9761, "unite": 9762, "unately": 9763, "undemocratic": 9764, "uncontrolled": 9765, "verbatim": 9766, "ests": 9767, "oph": 9768, "opposing": 9769, "ables": 9770, "novel": 9771, "nets": 9772, "usa": 9773, "usse": 9774, "worsen": 9775, "ivatives": 9776, "fere": 9777, "cancel": 9778, "ods": 9779, "viet": 9780, "preme": 9781, "preconditions": 9782, "premature": 9783, "anyway": 9784, "Stri": 9785, "reast": 9786, "presently": 9787, "offenders": 9788, "intern": 9789, "ideology": 9790, "somebody": 9791, "justifies": 9792, "guided": 9793, "integrating": 9794, "twooll": 9795, "laud": 9796, "readiness": 9797, "minim": 9798, "phones": 9799, "thinks": 9800, "problematic": 9801, "boats": 9802, "Marfil": 9803, "eleven": 9804, "mostly": 9805, "everywhere": 9806, "lessly": 9807, "committing": 9808, "mixed": 9809, "migratory": 9810, "currence": 9811, "artistic": 9812, "realised": 9813, "makers": 9814, "pursuit": 9815, "proceeding": 9816, "successes": 9817, "Schmit": 9818, "Schori": 9819, "Regret": 9820, "begins": 9821, "differ": 9822, "denounce": 9823, "Myller": 9824, "beni": 9825, "combining": 9826, "fundamentalism": 9827, "Statements": 9828, "hesit": 9829, "Attwooll": 9830, "biological": 9831, "responds": 9832, "statut": 9833, "observing": 9834, "civilisation": 9835, "holdings": 9836, "Adap": 9837, "drought": 9838, "amped": 9839, "tella": 9840, "Germ": 9841, "Indian": 9842, "modulation": 9843, "burgh": 9844, "Humanitarian": 9845, "Imbeni": 9846, "Perspective": 9847, "superflu": 9848, "capacities": 9849, "driven": 9850, "apologize": 9851, "exploited": 9852, "analyses": 9853, "modernising": 9854, "ensures": 9855, "originating": 9856, "foresee": 9857, "foreseen": 9858, "compensate": 9859, "federalist": 9860, "UKIP": 9861, "acquired": 9862, "interruption": 9863, "father": 9864, "grav": 9865, "obtaining": 9866, "seafare": 9867, "occupying": 9868, "Organization": 9869, "describe": 9870, "Laos": 9871, "Discrimination": 9872, "compete": 9873, "smoke": 9874, "wholehearted": 9875, "Kyrgy": 9876, "automobile": 9877, "Preparations": 9878, "optimism": 9879, "Channel": 9880, "broeck": 9881, "Sixthly": 9882, "heavily": 9883, "tendency": 9884, "formula": 9885, "Migu": 9886, "Technology": 9887, "dedication": 9888, "quantities": 9889, "quantitative": 9890, "macroeconomic": 9891, "ignored": 9892, "spreading": 9893, "prohibited": 9894, "Paulsen": 9895, "survive": 9896, "flags": 9897, "fragment": 9898, "returning": 9899, "music": 9900, "components": 9901, "Recogn": 9902, "Krehl": 9903, "virtually": 9904, "privileges": 9905, "undermining": 9906, "frankly": 9907, "Fernandes": 9908, "certific": 9909, "Integr": 9910, "Samland": 9911, "Voluntary": 9912, "incurred": 9913, "passionate": 9914, "ILO": 9915, "ttebroeck": 9916, "epidemic": 9917, "Territor": 9918, "attractive": 9919, "attentively": 9920, "Television": 9921, "injured": 9922, "speculative": 9923, "feasible": 9924, "perpetrated": 9925, "confronted": 9926, "transplantation": 9927, "pregnant": 9928, "Michael": 9929, "Pittella": 9930, "reputation": 9931, "deployed": 9932, "Negotiations": 9933, "Fortunately": 9934, "Sunday": 9935, "hatred": 9936, "Miert": 9937, "Racism": 9938, "admire": 9939, "Uyttebroeck": 9940, "puy": 9941, "psychological": 9942, "Olivier": 9943, "remote": 9944, "Observatory": 9945, "Esko": 9946, "Ioann": 9947, "Vocational": 9948, "communautaire": 9949, "Stevenson": 9950, "Duisenberg": 9951, "Svensson": 9952, "Tsagarop": 9953, "Uzbekistan": 9954, "injuries": 9955, "concepts": 9956, "sunami": 9957, "weapon": 9958, "superfluous": 9959, "Kyrgyz": 9960, "Astr": 9961, "Active": 9962, "BR": 9963, "Bh": 9964, "Bat": 9965, "Bast": 9966, "Bart": 9967, "Borders": 9968, "CE": 9969, "Dunn": 9970, "Ecofin": 9971, "Fi": 9972, "Fl": 9973, "Fla": 9974, "Fitz": 9975, "Gom": 9976, "Ghil": 9977, "Hult": 9978, "Harms": 9979, "ICT": 9980, "Jacqu": 9981, "Kac": 9982, "Learning": 9983, "MS": 9984, "Mik": 9985, "Mix": 9986, "Nab": 9987, "Number": 9988, "PC": 9989, "Putin": 9990, "Rather": 9991, "Roure": 9992, "Risk": 9993, "Sender": 9994, "Tak": 9995, "Ul": 9996, "Vog": 9997, "Wo": 9998, "Zana": 9999, "ai": 10000, "arest": 10001, "blow": 10002, "bird": 10003, "breast": 10004, "cin": 10005, "cau": 10006, "dial": 10007, "flaw": 10008, "hle": 10009, "iform": 10010, "lis": 10011, "mare": 10012, "ni": 10013, "ny": 10014, "nist": 10015, "owe": 10016, "oeu": 10017, "pure": 10018, "smugg": 10019, "trig": 10020, "vre": 10021, "wil": 10022, "yan": 10023, "ylum": 10024, "onwards": 10025, "rets": 10026, "reception": 10027, "inth": 10028, "inqu": 10029, "enem": 10030, "enys": 10031, "enko": 10032, "erod": 10033, "allies": 10034, "itary": 10035, "Thier": 10036, "ils": 10037, "verely": 10038, "bee": 10039, "beer": 10040, "belling": 10041, "severely": 10042, "deregulation": 10043, "utta": 10044, "prohibit": 10045, "confin": 10046, "olition": 10047, "suit": 10048, "amaz": 10049, "admis": 10050, "adras": 10051, "immen": 10052, "impartial": 10053, "chamber": 10054, "agri": 10055, "agger": 10056, "emotion": 10057, "loop": 10058, "ula": 10059, "exposure": 10060, "unci": 10061, "unsatisfactory": 10062, "rap": 10063, "teries": 10064, "shut": 10065, "opens": 10066, "aco": 10067, "acies": 10068, "geared": 10069, "ardotti": 10070, "ishould": 10071, "clin": 10072, "cluster": 10073, "shoulder": 10074, "aky": 10075, "coa": 10076, "coinc": 10077, "regain": 10078, "regrets": 10079, "maiden": 10080, "rens": 10081, "render": 10082, "dual": 10083, "display": 10084, "discover": 10085, "Quality": 10086, "Quadras": 10087, "Madag": 10088, "iaan": 10089, "indications": 10090, "indignation": 10091, "Revision": 10092, "aston": 10093, "undermines": 10094, "genhuber": 10095, "unden": 10096, "undes": 10097, "Conf": 10098, "Cons": 10099, "assoure": 10100, "assador": 10101, "Asylum": 10102, "guilty": 10103, "overview": 10104, "overturn": 10105, "airspace": 10106, "decou": 10107, "manoeu": 10108, "trap": 10109, "cold": 10110, "collapse": 10111, "ribution": 10112, "resumption": 10113, "incite": 10114, "orsk": 10115, "Animal": 10116, "Socrates": 10117, "Soviet": 10118, "socialists": 10119, "centuries": 10120, "oss": 10121, "osity": 10122, "Death": 10123, "organs": 10124, "lesser": 10125, "lessness": 10126, "desp": 10127, "artists": 10128, "oca": 10129, "maybe": 10130, "ECHO": 10131, "vessel": 10132, "simons": 10133, "specified": 10134, "establishes": 10135, "gines": 10136, "Intervention": 10137, "Turning": 10138, "technically": 10139, "Coal": 10140, "solv": 10141, "Police": 10142, "ESCO": 10143, "supplied": 10144, "Enter": 10145, "Romano": 10146, "Lisi": 10147, "passive": 10148, "void": 10149, "player": 10150, "lersun": 10151, "expects": 10152, "inson": 10153, "clarifies": 10154, "Josu": 10155, "Medic": 10156, "Andreas": 10157, "generosity": 10158, "Announce": 10159, "Addiction": 10160, "specialist": 10161, "euros": 10162, "ROM": 10163, "Greenland": 10164, "famine": 10165, "fairness": 10166, "profile": 10167, "profitable": 10168, "ska": 10169, "Saudi": 10170, "regrettably": 10171, "obligatory": 10172, "tells": 10173, "constructively": 10174, "Papouts": 10175, "judged": 10176, "conflicting": 10177, "administrations": 10178, "records": 10179, "threatens": 10180, "experiment": 10181, "strengthens": 10182, "middle": 10183, "reminded": 10184, "Protecting": 10185, "Belarusian": 10186, "moderate": 10187, "Morris": 10188, "restriction": 10189, "associate": 10190, "confirmation": 10191, "lively": 10192, "allocating": 10193, "nelly": 10194, "ropical": 10195, "facilitation": 10196, "deepest": 10197, "lots": 10198, "centralised": 10199, "highlighting": 10200, "Taoise": 10201, "awaits": 10202, "adapting": 10203, "Statistical": 10204, "Speak": 10205, "Harmon": 10206, "reaff": 10207, "Bonn": 10208, "Korean": 10209, "Vote": 10210, "Balkan": 10211, "codification": 10212, "certainties": 10213, "compatri": 10214, "Elmar": 10215, "typical": 10216, "Lamassoure": 10217, "surprising": 10218, "Block": 10219, "solete": 10220, "enormously": 10221, "automatically": 10222, "scene": 10223, "homes": 10224, "occurring": 10225, "Holland": 10226, "manufactured": 10227, "Simpli": 10228, "comparable": 10229, "Wales": 10230, "lifted": 10231, "Eurlings": 10232, "frequency": 10233, "Silva": 10234, "polluting": 10235, "Multilateral": 10236, "Workers": 10237, "trends": 10238, "abandoned": 10239, "tariffs": 10240, "observer": 10241, "drinks": 10242, "fragile": 10243, "dominant": 10244, "bomb": 10245, "alleged": 10246, "dictatorship": 10247, "jeopardise": 10248, "isolated": 10249, "coalition": 10250, "marginal": 10251, "detainees": 10252, "Increasing": 10253, "securities": 10254, "eligible": 10255, "revealed": 10256, "cooperative": 10257, "Stenzel": 10258, "Christo": 10259, "Ayala": 10260, "Donnelly": 10261, "selected": 10262, "Aznar": 10263, "unequivocally": 10264, "Hughes": 10265, "database": 10266, "Corrigendum": 10267, "Glenys": 10268, "Podest": 10269, "Passenger": 10270, "Charles": 10271, "CITES": 10272, "eagerly": 10273, "Paasil": 10274, "Nikit": 10275, "England": 10276, "Vallelersun": 10277, "reassured": 10278, "manifest": 10279, "substitute": 10280, "proportionality": 10281, "Topical": 10282, "recycling": 10283, "Cornillet": 10284, "smart": 10285, "remuneration": 10286, "authentic": 10287, "simultaneously": 10288, "catastrophic": 10289, "Autonom": 10290, "Ceders": 10291, "FYROM": 10292, "dreadful": 10293, "rehabilitation": 10294, "seafarers": 10295, "Tsagaropoulou": 10296, "Astrid": 10297, "Bastiaan": 10298, "Fitzsimons": 10299, "Ghilardotti": 10300, "Hulten": 10301, "Jacques": 10302, "Mixed": 10303, "Voggenhuber": 10304, "admissibility": 10305, "Papoutsis": 10306, "Taoiseach": 10307, "Vallelersundi": 10308, "AS": 10309, "Ace": 10310, "Aly": 10311, "Bear": 10312, "Broad": 10313, "Ce": 10314, "Cup": 10315, "Chap": 10316, "Colog": 10317, "Cath": 10318, "Dom": 10319, "Dum": 10320, "Div": 10321, "Dala": 10322, "Ele": 10323, "Ech": 10324, "Fij": 10325, "Fige": 10326, "Hann": 10327, "Hond": 10328, "Hutch": 10329, "ICC": 10330, "Jou": 10331, "Kak": 10332, "MA": 10333, "Main": 10334, "Mod": 10335, "Mats": 10336, "Making": 10337, "Ore": 10338, "Ped": 10339, "Pier": 10340, "Pron": 10341, "Ray": 10342, "Smet": 10343, "Tali": 10344, "Vis": 10345, "Vries": 10346, "WHO": 10347, "Zap": 10348, "dated": 10349, "doping": 10350, "gal": 10351, "guro": 10352, "ias": 10353, "igenous": 10354, "laman": 10355, "olive": 10356, "ogues": 10357, "pave": 10358, "pione": 10359, "rally": 10360, "rling": 10361, "rican": 10362, "tial": 10363, "tsunami": 10364, "vsk": 10365, "wid": 10366, "ware": 10367, "west": 10368, "ypes": 10369, "thu": 10370, "reot": 10371, "inna": 10372, "engines": 10373, "iso": 10374, "orrow": 10375, "erme": 10376, "alin": 10377, "alli": 10378, "align": 10379, "toward": 10380, "escape": 10381, "andrak": 10382, "arrit": 10383, "asi": 10384, "asp": 10385, "ascar": 10386, "icurity": 10387, "lege": 10388, "Thess": 10389, "sters": 10390, "cean": 10391, "ceas": 10392, "cereal": 10393, "portfo": 10394, "lived": 10395, "liba": 10396, "lihood": 10397, "olic": 10398, "suspe": 10399, "suspect": 10400, "amer": 10401, "ample": 10402, "weigh": 10403, "imation": 10404, "imated": 10405, "tact": 10406, "aggress": 10407, "ular": 10408, "urged": 10409, "Eurobonds": 10410, "university": 10411, "unresolved": 10412, "unconditional": 10413, "verification": 10414, "endanger": 10415, "ays": 10416, "river": 10417, "withstanding": 10418, "absor": 10419, "compromising": 10420, "acity": 10421, "nella": 10422, "user": 10423, "ustion": 10424, "ankind": 10425, "takeover": 10426, "worries": 10427, "debts": 10428, "umul": 10429, "heres": 10430, "heating": 10431, "forecasts": 10432, "renational": 10433, "pressures": 10434, "plea": 10435, "vian": 10436, "prerog": 10437, "lls": 10438, "discards": 10439, "countered": 10440, "motto": 10441, "upul": 10442, "upcoming": 10443, "upheld": 10444, "pricing": 10445, "indigenous": 10446, "offence": 10447, "adopts": 10448, "ceptic": 10449, "evasion": 10450, "intermod": 10451, "curb": 10452, "etta": 10453, "ideal": 10454, "spare": 10455, "pointless": 10456, "overdue": 10457, "decade": 10458, "inkhor": 10459, "humane": 10460, "legislate": 10461, "trains": 10462, "invoking": 10463, "viewed": 10464, "standpoint": 10465, "phur": 10466, "factory": 10467, "tenstein": 10468, "authorise": 10469, "herself": 10470, "initiate": 10471, "signatories": 10472, "shortage": 10473, "specify": 10474, "pliance": 10475, "aids": 10476, "lastly": 10477, "reduces": 10478, "owners": 10479, "Hope": 10480, "ordin": 10481, "carc": 10482, "Schwa": 10483, "Schnell": 10484, "landmines": 10485, "generalised": 10486, "Arrest": 10487, "retention": 10488, "ssandrak": 10489, "wherever": 10490, "whereby": 10491, "progressively": 10492, "Seguro": 10493, "recommending": 10494, "understands": 10495, "combustion": 10496, "Corbey": 10497, "suppli": 10498, "Enforcement": 10499, "career": 10500, "Leh": 10501, "misunderstanding": 10502, "restoration": 10503, "restoring": 10504, "identical": 10505, "accessibility": 10506, "voy": 10507, "imped": 10508, "standardisation": 10509, "Reports": 10510, "biom": 10511, "buying": 10512, "Compliance": 10513, "Governments": 10514, "Role": 10515, "Bertens": 10516, "Berthu": 10517, "Swiss": 10518, "Transnist": 10519, "Traffic": 10520, "suggesting": 10521, "Brinkhor": 10522, "limitation": 10523, "limitations": 10524, "bathing": 10525, "advised": 10526, "UNESCO": 10527, "spokes": 10528, "Guard": 10529, "Immigration": 10530, "wisely": 10531, "attacking": 10532, "scient": 10533, "endorsement": 10534, "superv": 10535, "safeguarded": 10536, "quoted": 10537, "Bowe": 10538, "analysed": 10539, "bears": 10540, "Newton": 10541, "bitter": 10542, "riga": 10543, "rigour": 10544, "accountable": 10545, "dimin": 10546, "weakest": 10547, "Fischer": 10548, "relationships": 10549, "Santos": 10550, "Statistics": 10551, "badly": 10552, "tempted": 10553, "occupational": 10554, "Garriga": 10555, "transferred": 10556, "Harkin": 10557, "replacement": 10558, "sporting": 10559, "Tunnel": 10560, "deeds": 10561, "collectively": 10562, "maxim": 10563, "populated": 10564, "Lama": 10565, "consolidating": 10566, "winners": 10567, "defici": 10568, "Miller": 10569, "Egyptian": 10570, "teams": 10571, "greetings": 10572, "scrupul": 10573, "Sarlis": 10574, "Bowles": 10575, "imagin": 10576, "contracting": 10577, "thousand": 10578, "reactors": 10579, "ecosystem": 10580, "honesty": 10581, "polluter": 10582, "Goepel": 10583, "anticipate": 10584, "commodities": 10585, "Armenian": 10586, "brave": 10587, "departure": 10588, "privilege": 10589, "prevailing": 10590, "Tomorrow": 10591, "intensified": 10592, "abandon": 10593, "reconcil": 10594, "insert": 10595, "celebrating": 10596, "relaunch": 10597, "Pannella": 10598, "fulfilling": 10599, "tighten": 10600, "traditionally": 10601, "EFD": 10602, "inevitably": 10603, "junction": 10604, "tourists": 10605, "paed": 10606, "cancelled": 10607, "selective": 10608, "trouble": 10609, "inspiring": 10610, "persuade": 10611, "Royo": 10612, "resolutely": 10613, "smooth": 10614, "Vallv": 10615, "councils": 10616, "assert": 10617, "artificial": 10618, "Grosch": 10619, "aggression": 10620, "Oddy": 10621, "vigorously": 10622, "Nomination": 10623, "Pacific": 10624, "ineffective": 10625, "Improvement": 10626, "biometric": 10627, "Ojeda": 10628, "Henderson": 10629, "unavoidable": 10630, "paradox": 10631, "bunal": 10632, "MEDIA": 10633, "Mavrommat": 10634, "Above": 10635, "Ghent": 10636, "History": 10637, "scourge": 10638, "internally": 10639, "Regrettably": 10640, "Integrated": 10641, "Kyrgyzstan": 10642, "caught": 10643, "smuggling": 10644, "loopholes": 10645, "Madagascar": 10646, "Announcement": 10647, "Paasilinna": 10648, "Autonomous": 10649, "Cederschi": 10650, "Aceh": 10651, "Alyssandrak": 10652, "Cologne": 10653, "Catholic": 10654, "Dalai": 10655, "Fiji": 10656, "Hondur": 10657, "Hutchinson": 10658, "Jouyet": 10659, "Kaklaman": 10660, "Matsakis": 10661, "Oreja": 10662, "Pronk": 10663, "Taliban": 10664, "reotypes": 10665, "arritz": 10666, "Thessalon": 10667, "Schwaiger": 10668, "Schnellhardt": 10669, "Transnistria": 10670, "Brinkhorst": 10671, "Alyssandrakis": 10672, "Kaklamanis": 10673, "Ahl": 10674, "Bir": 10675, "Bak": 10676, "Border": 10677, "Bauer": 10678, "Crist": 10679, "CIA": 10680, "Coss": 10681, "Fun": 10682, "Fay": 10683, "Flex": 10684, "Flor": 10685, "GN": 10686, "Gis": 10687, "Hier": 10688, "Jegg": 10689, "Kl": 10690, "Lou": 10691, "Lenn": 10692, "Laper": 10693, "LEA": 10694, "Lamped": 10695, "MDG": 10696, "NA": 10697, "Nico": 10698, "Obi": 10699, "PHA": 10700, "Ries": 10701, "Sz": 10702, "Sat": 10703, "Santini": 10704, "Up": 10705, "UPE": 10706, "Vo": 10707, "Washing": 10708, "bare": 10709, "coup": 10710, "cchi": 10711, "dwell": 10712, "fed": 10713, "fies": 10714, "faster": 10715, "fats": 10716, "gir": 10717, "lou": 10718, "lending": 10719, "mese": 10720, "pand": 10721, "ppe": 10722, "pick": 10723, "sin": 10724, "slo": 10725, "shap": 10726, "soul": 10727, "tification": 10728, "ttering": 10729, "vill": 10730, "vice": 10731, "wave": 10732, "yard": 10733, "onard": 10734, "theme": 10735, "therape": 10736, "revital": 10737, "reproach": 10738, "inery": 10739, "incompatible": 10740, "anci": 10741, "ense": 10742, "enza": 10743, "enemann": 10744, "encountered": 10745, "isc": 10746, "ista": 10747, "orating": 10748, "alities": 10749, "roes": 10750, "ario": 10751, "arrog": 10752, "asse": 10753, "asive": 10754, "resign": 10755, "icating": 10756, "otechn": 10757, "veto": 10758, "idi": 10759, "seg": 10760, "dement": 10761, "utre": 10762, "utic": 10763, "conversion": 10764, "conjunction": 10765, "lip": 10766, "sula": 10767, "imply": 10768, "empower": 10769, "Euromed": 10770, "uncertain": 10771, "unreasonable": 10772, "racial": 10773, "aya": 10774, "irrever": 10775, "oppon": 10776, "tech": 10777, "neuro": 10778, "parame": 10779, "intr": 10780, "derman": 10781, "derness": 10782, "cooperating": 10783, "sile": 10784, "Intel": 10785, "romagne": 10786, "contempt": 10787, "pret": 10788, "disappeared": 10789, "hoc": 10790, "Stalin": 10791, "pride": 10792, "indication": 10793, "Rev": 10794, "undergoing": 10795, "elon": 10796, "redist": 10797, "nationalism": 10798, "guer": 10799, "wood": 10800, "emph": 10801, "translate": 10802, "legislators": 10803, "ferences": 10804, "obsolete": 10805, "invasion": 10806, "coll": 10807, "viewpoint": 10808, "goodwill": 10809, "boat": 10810, "useppe": 10811, "iction": 10812, "shipments": 10813, "ounding": 10814, "authorising": 10815, "bases": 10816, "collect": 10817, "Beaz": 10818, "DER": 10819, "employee": 10820, "approves": 10821, "ledo": 10822, "organising": 10823, "countryside": 10824, "communist": 10825, "carries": 10826, "Intercultural": 10827, "Schier": 10828, "holder": 10829, "completing": 10830, "Polledo": 10831, "Lienemann": 10832, "forceful": 10833, "Rompuy": 10834, "violate": 10835, "passport": 10836, "voices": 10837, "SEPA": 10838, "recognize": 10839, "hearts": 10840, "explos": 10841, "timing": 10842, "brea": 10843, "flour": 10844, "glass": 10845, "waive": 10846, "Coll": 10847, "Colino": 10848, "electromagne": 10849, "stereotypes": 10850, "rupt": 10851, "creativity": 10852, "individually": 10853, "independently": 10854, "Results": 10855, "domain": 10856, "antibiot": 10857, "sentenced": 10858, "restricting": 10859, "Balfe": 10860, "experiments": 10861, "Luk": 10862, "liberalization": 10863, "Carr": 10864, "damages": 10865, "coverage": 10866, "checking": 10867, "demonstrating": 10868, "ptions": 10869, "Explanations": 10870, "ratifying": 10871, "attacked": 10872, "Burton": 10873, "Burmese": 10874, "studied": 10875, "charged": 10876, "Moreira": 10877, "designation": 10878, "eventual": 10879, "volume": 10880, "telephone": 10881, "Boli": 10882, "vigorous": 10883, "measurement": 10884, "Lancker": 10885, "Foot": 10886, "mandates": 10887, "Viola": 10888, "coordinator": 10889, "criticise": 10890, "horse": 10891, "thoughtful": 10892, "abolishing": 10893, "Estrela": 10894, "Abolition": 10895, "Conservation": 10896, "Labelling": 10897, "permanently": 10898, "blocked": 10899, "blocking": 10900, "blockade": 10901, "gaining": 10902, "preferable": 10903, "advocating": 10904, "complying": 10905, "Merkel": 10906, "Graham": 10907, "killings": 10908, "automatic": 10909, "Helms": 10910, "truths": 10911, "Tunisian": 10912, "phasing": 10913, "millennium": 10914, "munitions": 10915, "municip": 10916, "embark": 10917, "appalled": 10918, "Prior": 10919, "Supplementary": 10920, "destroying": 10921, "Biarritz": 10922, "tendencies": 10923, "formulate": 10924, "Lithuanian": 10925, "acknowledges": 10926, "frequent": 10927, "Arabia": 10928, "pollutants": 10929, "deliberately": 10930, "profitability": 10931, "thresholds": 10932, "Fraisse": 10933, "chaos": 10934, "distortions": 10935, "Address": 10936, "Additional": 10937, "onymi": 10938, "ucco": 10939, "inserted": 10940, "officially": 10941, "detriment": 10942, "preferential": 10943, "diverse": 10944, "rouze": 10945, "Giuseppe": 10946, "Promotion": 10947, "vaccines": 10948, "purchasing": 10949, "Effects": 10950, "derogations": 10951, "discretion": 10952, "sacrific": 10953, "screening": 10954, "diagnosis": 10955, "lobbyists": 10956, "totalitarianism": 10957, "fascinating": 10958, "towns": 10959, "neutrality": 10960, "Moscow": 10961, "predic": 10962, "nutrition": 10963, "nutritional": 10964, "Reducing": 10965, "synthetic": 10966, "Catalan": 10967, "Boumedi": 10968, "Klaus": 10969, "Whether": 10970, "colonial": 10971, "fingerprints": 10972, "anxious": 10973, "Kallas": 10974, "Eritrea": 10975, "Saint": 10976, "relocations": 10977, "blatant": 10978, "Refugee": 10979, "assassination": 10980, "Terrorism": 10981, "Johannesburg": 10982, "Schmitt": 10983, "Ioannis": 10984, "Flautre": 10985, "Nabucco": 10986, "Thiery": 10987, "immense": 10988, "unciation": 10989, "clinical": 10990, "undesirable": 10991, "Bearing": 10992, "Echelon": 10993, "Pierre": 10994, "portfolio": 10995, "Trafficking": 10996, "Mavrommatis": 10997, "Honduras": 10998, "Thessaloniki": 10999, "Ahlqvist": 11000, "Cossutta": 11001, "Fayot": 11002, "Hieronymi": 11003, "Jeggle": 11004, "Lennart": 11005, "Laperrouze": 11006, "LEADER": 11007, "Lampedusa": 11008, "Obiols": 11009, "PHARE": 11010, "Washington": 11011, "therapeutic": 11012, "Beazley": 11013, "Schierhuber": 11014, "electromagnetic": 11015, "Bod": 11016, "Baut": 11017, "Clo": 11018, "Cred": 11019, "Cler": 11020, "Cey": 11021, "Clean": 11022, "Dap": 11023, "EQ": 11024, "Esta": 11025, "Eva": 11026, "Emissions": 11027, "Flem": 11028, "Hed": 11029, "Hig": 11030, "HCR": 11031, "Husse": 11032, "Ja": 11033, "Ke": 11034, "Kn": 11035, "Kof": 11036, "Kinder": 11037, "Len": 11038, "Low": 11039, "Loc": 11040, "Laughter": 11041, "Mean": 11042, "Nel": 11043, "PS": 11044, "Ps": 11045, "Pers": 11046, "Rw": 11047, "Sad": 11048, "Sary": 11049, "Sev": 11050, "Saddam": 11051, "UR": 11052, "Vat": 11053, "Vass": 11054, "Wadding": 11055, "Waste": 11056, "XX": 11057, "Xyn": 11058, "Yiann": 11059, "ax": 11060, "bach": 11061, "bow": 11062, "cs": 11063, "dedu": 11064, "ete": 11065, "fro": 11066, "fication": 11067, "fallen": 11068, "flying": 11069, "hus": 11070, "ipo": 11071, "ihler": 11072, "lag": 11073, "mits": 11074, "mankind": 11075, "nan": 11076, "nik": 11077, "rd": 11078, "rations": 11079, "riding": 11080, "ruled": 11081, "sle": 11082, "ssel": 11083, "sceptic": 11084, "uct": 11085, "xin": 11086, "yla": 11087, "zk": 11088, "thia": 11089, "thring": 11090, "onto": 11091, "theore": 11092, "theory": 11093, "repetition": 11094, "revising": 11095, "inex": 11096, "indisput": 11097, "inidis": 11098, "anta": 11099, "issen": 11100, "isible": 11101, "orhouse": 11102, "oui": 11103, "outr": 11104, "ales": 11105, "entrust": 11106, "editor": 11107, "ars": 11108, "argue": 11109, "ascertain": 11110, "resettlement": 11111, "stic": 11112, "ilo": 11113, "iled": 11114, "ilation": 11115, "seal": 11116, "Theonas": 11117, "conting": 11118, "concur": 11119, "sus": 11120, "suic": 11121, "adhere": 11122, "admission": 11123, "illicit": 11124, "imposition": 11125, "imprison": 11126, "implicit": 11127, "impressive": 11128, "imminent": 11129, "taught": 11130, "resident": 11131, "ching": 11132, "chest": 11133, "emic": 11134, "emot": 11135, "emel": 11136, "exagger": 11137, "uns": 11138, "unquestion": 11139, "unchanged": 11140, "unlawful": 11141, "verde": 11142, "endors": 11143, "raoui": 11144, "terrey": 11145, "sham": 11146, "shipo": 11147, "notify": 11148, "plication": 11149, "quire": 11150, "opting": 11151, "acute": 11152, "posals": 11153, "ussy": 11154, "gered": 11155, "ump": 11156, "outcomes": 11157, "coexistence": 11158, "cocoa": 11159, "butter": 11160, "worker": 11161, "prem": 11162, "itsis": 11163, "cedo": 11164, "discovered": 11165, "disproportionate": 11166, "hoolig": 11167, "counted": 11168, "provoked": 11169, "Stihler": 11170, "upgrad": 11171, "Record": 11172, "eline": 11173, "evil": 11174, "Protests": 11175, "Proposals": 11176, "marck": 11177, "intercultural": 11178, "Amb": 11179, "efire": 11180, "reluct": 11181, "overlap": 11182, "overrun": 11183, "Supreme": 11184, "decides": 11185, "transformation": 11186, "fru": 11187, "serving": 11188, "legislator": 11189, "inviting": 11190, "colours": 11191, "reasoning": 11192, "courses": 11193, "mining": 11194, "mineral": 11195, "Church": 11196, "syner": 11197, "economics": 11198, "receives": 11199, "Ant": 11200, "refuses": 11201, "Marse": 11202, "tenth": 11203, "qualitative": 11204, "ignoring": 11205, "knowing": 11206, "brance": 11207, "braltar": 11208, "brinidis": 11209, "Alan": 11210, "confuse": 11211, "lawmaking": 11212, "signatory": 11213, "backed": 11214, "promp": 11215, "gins": 11216, "Interruption": 11217, "Schle": 11218, "Frank": 11219, "Frute": 11220, "retro": 11221, "ticket": 11222, "stepped": 11223, "fficient": 11224, "izes": 11225, "differs": 11226, "approaching": 11227, "denom": 11228, "Sey": 11229, "defect": 11230, "atero": 11231, "Corpor": 11232, "minded": 11233, "Leyla": 11234, "Heckling": 11235, "voet": 11236, "unequal": 11237, "Mayol": 11238, "declaring": 11239, "defines": 11240, "Rober": 11241, "Berger": 11242, "observance": 11243, "handle": 11244, "iov": 11245, "emphasising": 11246, "Annan": 11247, "USD": 11248, "sulphur": 11249, "lapsed": 11250, "engaging": 11251, "Saad": 11252, "mergers": 11253, "UNHCR": 11254, "founding": 11255, "harmonious": 11256, "circle": 11257, "liberalism": 11258, "appreciates": 11259, "traffickers": 11260, "Monterrey": 11261, "studying": 11262, "seventh": 11263, "ACE": 11264, "flexicurity": 11265, "penalise": 11266, "designs": 11267, "Staff": 11268, "convicted": 11269, "emerge": 11270, "malaria": 11271, "Camero": 11272, "Prets": 11273, "cataly": 11274, "Serbs": 11275, "Serbian": 11276, "deepening": 11277, "separation": 11278, "acquire": 11279, "herent": 11280, "wondering": 11281, "Zimmer": 11282, "maternity": 11283, "Representatives": 11284, "awaited": 11285, "Moluc": 11286, "incorporating": 11287, "hugely": 11288, "pedest": 11289, "Desama": 11290, "planting": 11291, "exported": 11292, "Speaking": 11293, "secured": 11294, "valued": 11295, "transferring": 11296, "striking": 11297, "Consumers": 11298, "Moorhouse": 11299, "arriving": 11300, "complexity": 11301, "Blank": 11302, "TEN": 11303, "Valverde": 11304, "logistics": 11305, "Lamfal": 11306, "Lambrinidis": 11307, "uzz": 11308, "ministerial": 11309, "executions": 11310, "respectively": 11311, "ETS": 11312, "reactionary": 11313, "decisively": 11314, "inadequ": 11315, "postponing": 11316, "fleeing": 11317, "skilled": 11318, "Hassi": 11319, "dynamism": 11320, "tragedies": 11321, "comparative": 11322, "Institutions": 11323, "Rosado": 11324, "acknowledging": 11325, "patenting": 11326, "patentability": 11327, "destructive": 11328, "accuracy": 11329, "Quecedo": 11330, "hamel": 11331, "licence": 11332, "claiming": 11333, "alleviate": 11334, "phenomena": 11335, "Aids": 11336, "distinct": 11337, "witnessed": 11338, "witnessing": 11339, "Politkovsk": 11340, "expanding": 11341, "Romeva": 11342, "touched": 11343, "excluding": 11344, "usalem": 11345, "destroyed": 11346, "evidently": 11347, "multiple": 11348, "struggling": 11349, "machinery": 11350, "Lothring": 11351, "grip": 11352, "shameful": 11353, "Angela": 11354, "celebrate": 11355, "chapters": 11356, "Appointments": 11357, "painful": 11358, "liberty": 11359, "virtue": 11360, "Faced": 11361, "Skinner": 11362, "soft": 11363, "prosecution": 11364, "Gibraltar": 11365, "Wolski": 11366, "securing": 11367, "Effective": 11368, "junct": 11369, "accelerate": 11370, "accelerated": 11371, "arrests": 11372, "Stenmarck": 11373, "Cardiff": 11374, "customers": 11375, "Australian": 11376, "obscure": 11377, "inspiration": 11378, "disgraceful": 11379, "unequivocal": 11380, "Galicia": 11381, "diversification": 11382, "Murphy": 11383, "defeat": 11384, "defeated": 11385, "believed": 11386, "engineering": 11387, "Messner": 11388, "mortality": 11389, "Opening": 11390, "accede": 11391, "Administrative": 11392, "Tobacco": 11393, "streets": 11394, "happily": 11395, "accompanying": 11396, "pigs": 11397, "prejudice": 11398, "hydrogen": 11399, "Duhamel": 11400, "Jerusalem": 11401, "TACIS": 11402, "aeroplanes": 11403, "clamation": 11404, "elaborate": 11405, "underestimated": 11406, "managers": 11407, "Securities": 11408, "Judicial": 11409, "Khadraoui": 11410, "laudable": 11411, "statutory": 11412, "Fiori": 11413, "Gomes": 11414, "confined": 11415, "ocaust": 11416, "Andreasen": 11417, "Division": 11418, "Hannan": 11419, "Pedro": 11420, "Zapatero": 11421, "ricane": 11422, "ceasefire": 11423, "Giscard": 11424, "Nicole": 11425, "girls": 11426, "slogan": 11427, "irreversible": 11428, "opponents": 11429, "parameters": 11430, "Collado": 11431, "Bautista": 11432, "Daphne": 11433, "Estaing": 11434, "Flemming": 11435, "Higgins": 11436, "Hussein": 11437, "Kindermann": 11438, "Meanwhile": 11439, "Rwanda": 11440, "Saryusz": 11441, "Seville": 11442, "Waddington": 11443, "Xynthia": 11444, "Yiannitsis": 11445, "outrage": 11446, "endorsing": 11447, "Fruteau": 11448, "Cameroon": 11449, "Lamfalussy": 11450, "Lothringen": 11451, "Ael": 11452, "Aung": 11453, "ARE": 11454, "Bolo": 11455, "Biss": 11456, "Brown": 11457, "CD": 11458, "DF": 11459, "Ef": 11460, "Er": 11461, "Eras": 11462, "FF": 11463, "Fre": 11464, "Fourt": 11465, "Fuel": 11466, "Gab": 11467, "Gold": 11468, "Kal": 11469, "Kam": 11470, "Kun": 11471, "Kerr": 11472, "Khan": 11473, "Lim": 11474, "Less": 11475, "Living": 11476, "Mission": 11477, "Nistic": 11478, "Pension": 11479, "Plat": 11480, "Piet": 11481, "Rob": 11482, "RTD": 11483, "Sor": 11484, "Somm": 11485, "Sus": 11486, "Sind": 11487, "SOL": 11488, "Sreb": 11489, "Sasi": 11490, "Tar": 11491, "Till": 11492, "TSE": 11493, "Var": 11494, "Veld": 11495, "VIT": 11496, "Yor": 11497, "auster": 11498, "bund": 11499, "cq": 11500, "cit": 11501, "cab": 11502, "cited": 11503, "cater": 11504, "dark": 11505, "fly": 11506, "games": 11507, "gado": 11508, "gitta": 11509, "hing": 11510, "hid": 11511, "hither": 11512, "iries": 11513, "iably": 11514, "jail": 11515, "kula": 11516, "lus": 11517, "liness": 11518, "mn": 11519, "mans": 11520, "pp": 11521, "pul": 11522, "tese": 11523, "utop": 11524, "usions": 11525, "vici": 11526, "wab": 11527, "thal": 11528, "thoud": 11529, "onso": 11530, "reim": 11531, "rell": 11532, "inn": 11533, "inability": 11534, "incomplete": 11535, "inherent": 11536, "enlight": 11537, "encounter": 11538, "atial": 11539, "isco": 11540, "isthoud": 11541, "orand": 11542, "ories": 11543, "orge": 11544, "orally": 11545, "orily": 11546, "erb": 11547, "ouros": 11548, "entious": 11549, "edel": 11550, "rome": 11551, "roaming": 11552, "ander": 11553, "andouros": 11554, "arte": 11555, "arting": 11556, "arous": 11557, "arities": 11558, "asts": 11559, "assem": 11560, "icious": 11561, "icians": 11562, "lected": 11563, "style": 11564, "ilings": 11565, "behave": 11566, "bered": 11567, "sever": 11568, "Thematic": 11569, "cere": 11570, "ceilings": 11571, "promin": 11572, "lier": 11573, "oling": 11574, "amandouros": 11575, "wei": 11576, "wet": 11577, "adim": 11578, "adult": 11579, "admira": 11580, "illa": 11581, "illness": 11582, "imposes": 11583, "Presidential": 11584, "loqu": 11585, "loading": 11586, "ldo": 11587, "exac": 11588, "exposed": 11589, "Eurozone": 11590, "arena": 11591, "unle": 11592, "unaware": 11593, "unexpected": 11594, "unrealistic": 11595, "unregulated": 11596, "shel": 11597, "notified": 11598, "ount": 11599, "opted": 11600, "oppression": 11601, "ophil": 11602, "ghez": 11603, "abide": 11604, "comprises": 11605, "grid": 11606, "cles": 11607, "derivatives": 11608, "aki": 11609, "ivities": 11610, "fees": 11611, "actor": 11612, "covici": 11613, "polar": 11614, "Counter": 11615, "forever": 11616, "math": 11617, "maize": 11618, "istically": 11619, "rensen": 11620, "renica": 11621, "presum": 11622, "partisan": 11623, "aude": 11624, "Noise": 11625, "Nothing": 11626, "precondition": 11627, "aven": 11628, "disregard": 11629, "forming": 11630, "ctioning": 11631, "yourselves": 11632, "Quisthoud": 11633, "indent": 11634, "indif": 11635, "Refer": 11636, "underway": 11637, "eved": 11638, "Provision": 11639, "Prosecut": 11640, "Production": 11641, "gentleman": 11642, "ett": 11643, "favours": 11644, "favourably": 11645, "inee": 11646, "spont": 11647, "spouses": 11648, "spheres": 11649, "ipulation": 11650, "Confl": 11651, "develops": 11652, "guise": 11653, "overly": 11654, "overcoming": 11655, "overshadow": 11656, "overlooked": 11657, "Suu": 11658, "wohl": 11659, "clubs": 11660, "cks": 11661, "trail": 11662, "reasonably": 11663, "Chira": 11664, "protein": 11665, "protective": 11666, "protects": 11667, "attribut": 11668, "struction": 11669, "foss": 11670, "plane": 11671, "incap": 11672, "Anast": 11673, "Mario": 11674, "Marbles": 11675, "shipyards": 11676, "igation": 11677, "authorisations": 11678, "osing": 11679, "objects": 11680, "brand": 11681, "echtenstein": 11682, "crew": 11683, "protectionist": 11684, "respectful": 11685, "occurrence": 11686, "Toxin": 11687, "openly": 11688, "governed": 11689, "negotiators": 11690, "backdrop": 11691, "successor": 11692, "cartel": 11693, "Schwab": 11694, "indefinite": 11695, "Funding": 11696, "appropriation": 11697, "solar": 11698, "finalised": 11699, "differing": 11700, "invested": 11701, "Excell": 11702, "Except": 11703, "aterally": 11704, "Liechtenstein": 11705, "Cornel": 11706, "League": 11707, "misunderstand": 11708, "missile": 11709, "identifying": 11710, "wners": 11711, "ilitary": 11712, "delegated": 11713, "benefited": 11714, "peacekeeping": 11715, "risen": 11716, "standardised": 11717, "hesitation": 11718, "fourthly": 11719, "challenged": 11720, "ITER": 11721, "biased": 11722, "Maybe": 11723, "Maystadt": 11724, "diet": 11725, "preventative": 11726, "hearings": 11727, "Andor": 11728, "generating": 11729, "Rowohl": 11730, "flavour": 11731, "headings": 11732, "Bern": 11733, "Berlus": 11734, "observatory": 11735, "Pere": 11736, "broaden": 11737, "droughts": 11738, "McMill": 11739, "famous": 11740, "seemed": 11741, "Sah": 11742, "tested": 11743, "Christine": 11744, "Occup": 11745, "indivisible": 11746, "judges": 11747, "guideline": 11748, "explaining": 11749, "equity": 11750, "roni": 11751, "zeli": 11752, "renewables": 11753, "barb": 11754, "barrier": 11755, "indicator": 11756, "student": 11757, "ACTA": 11758, "Maltese": 11759, "satisfactorily": 11760, "friendship": 11761, "accumul": 11762, "auditing": 11763, "driver": 11764, "referenda": 11765, "confirming": 11766, "industrialised": 11767, "Boel": 11768, "explore": 11769, "Camilo": 11770, "catches": 11771, "investigating": 11772, "mutilation": 11773, "exert": 11774, "reinforces": 11775, "deepen": 11776, "targeting": 11777, "sounds": 11778, "Nordmann": 11779, "breakdown": 11780, "concentrated": 11781, "influenza": 11782, "classified": 11783, "Manisco": 11784, "diviel": 11785, "enjoying": 11786, "enjoys": 11787, "Paolo": 11788, "exporting": 11789, "Karin": 11790, "Patent": 11791, "Pakistani": 11792, "eliminated": 11793, "ISA": 11794, "arrival": 11795, "Votes": 11796, "stantinos": 11797, "Blue": 11798, "Valent": 11799, "Valdiviel": 11800, "competing": 11801, "Diamandouros": 11802, "murders": 11803, "winner": 11804, "sympa": 11805, "Nigerian": 11806, "Kyi": 11807, "quaestors": 11808, "pieces": 11809, "ophobic": 11810, "corresponds": 11811, "Obama": 11812, "Rapid": 11813, "spectac": 11814, "retained": 11815, "optimum": 11816, "slightest": 11817, "tolerated": 11818, "deletion": 11819, "imperialism": 11820, "Anyone": 11821, "Japanese": 11822, "Fabra": 11823, "discriminate": 11824, "discriminates": 11825, "Floods": 11826, "controversy": 11827, "Indonesian": 11828, "Langenhagen": 11829, "ERDF": 11830, "brain": 11831, "saved": 11832, "intensify": 11833, "books": 11834, "touches": 11835, "websites": 11836, "abandoning": 11837, "rectified": 11838, "Junker": 11839, "recipi": 11840, "beneficiary": 11841, "persistent": 11842, "Looking": 11843, "bombing": 11844, "dictatorships": 11845, "aneous": 11846, "Hermange": 11847, "exercising": 11848, "Borrell": 11849, "Borghez": 11850, "Claude": 11851, "Dami": 11852, "watching": 11853, "Specifically": 11854, "Nicola": 11855, "infected": 11856, "Assess": 11857, "profoundly": 11858, "Kuhne": 11859, "Integration": 11860, "mixt": 11861, "cautions": 11862, "Restr": 11863, "promptly": 11864, "screen": 11865, "ENP": 11866, "Veterinary": 11867, "Marinho": 11868, "lobbying": 11869, "Marketing": 11870, "feedingstuffs": 11871, "Majesty": 11872, "retailers": 11873, "insult": 11874, "Moscovici": 11875, "omissions": 11876, "commemorate": 11877, "decrease": 11878, "Children": 11879, "smoothly": 11880, "Torres": 11881, "juven": 11882, "confrontation": 11883, "Campania": 11884, "literacy": 11885, "sharp": 11886, "prioritise": 11887, "seasonal": 11888, "Besides": 11889, "Earth": 11890, "atrocities": 11891, "scenario": 11892, "remembrance": 11893, "Illegal": 11894, "aspirations": 11895, "Schools": 11896, "discrepancies": 11897, "censor": 11898, "kidnap": 11899, "tankers": 11900, "predecessor": 11901, "fixing": 11902, "Languages": 11903, "Konstantinos": 11904, "photo": 11905, "sparsely": 11906, "liquid": 11907, "confidentiality": 11908, "Competitiveness": 11909, "Rivera": 11910, "TRIP": 11911, "reminder": 11912, "transmitted": 11913, "ausp": 11914, "repatriation": 11915, "enlargements": 11916, "worsening": 11917, "Strip": 11918, "Adaptation": 11919, "Recognition": 11920, "Territorial": 11921, "Batzeli": 11922, "Takkula": 11923, "dialogues": 11924, "flawed": 11925, "wilderness": 11926, "acovigilance": 11927, "decoupling": 11928, "Speaker": 11929, "Chapter": 11930, "Raynal": 11931, "vskis": 11932, "suspected": 11933, "Hopefully": 11934, "biomass": 11935, "scientists": 11936, "Birgitta": 11937, "pandemic": 11938, "Intelligent": 11939, "antibiotics": 11940, "Bolivia": 11941, "predictable": 11942, "Boumediene": 11943, "Credit": 11944, "Clercq": 11945, "Sadly": 11946, "sleep": 11947, "shipowners": 11948, "synergies": 11949, "Schleicher": 11950, "Politkovskaya": 11951, "juncture": 11952, "Aelvoet": 11953, "Bologna": 11954, "Bissau": 11955, "Erasmus": 11956, "Fourtou": 11957, "Kuneva": 11958, "Robin": 11959, "Sindal": 11960, "SOLVIT": 11961, "Srebrenica": 11962, "Tillich": 11963, "austerity": 11964, "hidden": 11965, "hitherto": 11966, "reimbur": 11967, "orandum": 11968, "admirable": 11969, "exacerb": 11970, "Quisthoudt": 11971, "Chirac": 11972, "Cornelissen": 11973, "Berlusconi": 11974, "McMillan": 11975, "Valdivielso": 11976, "Borghezio": 11977, "Age": 11978, "Apar": 11979, "BT": 11980, "Buch": 11981, "Big": 11982, "Based": 11983, "Ci": 11984, "Dj": 11985, "Daman": 11986, "Eco": 11987, "Ecol": 11988, "Fine": 11989, "Full": 11990, "Gay": 11991, "Gary": 11992, "GAT": 11993, "Had": 11994, "Hop": 11995, "Hannes": 11996, "IC": 11997, "Ibra": 11998, "Jour": 11999, "Jia": 12000, "Jose": 12001, "Kit": 12002, "Kroes": 12003, "Lif": 12004, "Mass": 12005, "NO": 12006, "Opel": 12007, "Pop": 12008, "Ryan": 12009, "SW": 12010, "SES": 12011, "Tw": 12012, "Tran": 12013, "Von": 12014, "Vict": 12015, "Wink": 12016, "Wiel": 12017, "aes": 12018, "abel": 12019, "bha": 12020, "ege": 12021, "eigh": 12022, "eloqu": 12023, "fant": 12024, "fia": 12025, "fried": 12026, "fold": 12027, "fmann": 12028, "giv": 12029, "gage": 12030, "hem": 12031, "hect": 12032, "iological": 12033, "iaga": 12034, "jan": 12035, "ky": 12036, "kil": 12037, "kay": 12038, "knew": 12039, "khope": 12040, "kmark": 12041, "kara": 12042, "lene": 12043, "nsch": 12044, "ozone": 12045, "rof": 12046, "ricul": 12047, "rice": 12048, "rush": 12049, "sided": 12050, "tie": 12051, "tender": 12052, "ttes": 12053, "uated": 12054, "vac": 12055, "zki": 12056, "reward": 12057, "rethink": 12058, "reworded": 12059, "iny": 12060, "inous": 12061, "indu": 12062, "inspect": 12063, "inburgh": 12064, "anthem": 12065, "ena": 12066, "enforcing": 12067, "atis": 12068, "ora": 12069, "erd": 12070, "erre": 12071, "alert": 12072, "toy": 12073, "esta": 12074, "esity": 12075, "essions": 12076, "ofar": 12077, "itations": 12078, "rote": 12079, "rock": 12080, "rolling": 12081, "assion": 12082, "omy": 12083, "omon": 12084, "resc": 12085, "icz": 12086, "icio": 12087, "lev": 12088, "stret": 12089, "stering": 12090, "otou": 12091, "bees": 12092, "idy": 12093, "seam": 12094, "dean": 12095, "deport": 12096, "degener": 12097, "ceiling": 12098, "uty": 12099, "uton": 12100, "adults": 12101, "illnesses": 12102, "imid": 12103, "imbalance": 12104, "residue": 12105, "Commit": 12106, "chur": 12107, "chron": 12108, "aggrav": 12109, "emi": 12110, "loses": 12111, "ulent": 12112, "exhib": 12113, "Eurovig": 12114, "uner": 12115, "unpleasant": 12116, "unambiguous": 12117, "uncertainties": 12118, "shift": 12119, "rif": 12120, "rians": 12121, "irrit": 12122, "abdu": 12123, "abduction": 12124, "cious": 12125, "bers": 12126, "berger": 12127, "metal": 12128, "grub": 12129, "para": 12130, "paraly": 12131, "spects": 12132, "intent": 12133, "intense": 12134, "intimid": 12135, "heat": 12136, "cloned": 12137, "ifun": 12138, "sitional": 12139, "doors": 12140, "aked": 12141, "feiting": 12142, "thereof": 12143, "outright": 12144, "outlook": 12145, "forefront": 12146, "Int": 12147, "Independ": 12148, "University": 12149, "Universal": 12150, "golia": 12151, "supporter": 12152, "supporters": 12153, "halop": 12154, "duplication": 12155, "fines": 12156, "diss": 12157, "discharges": 12158, "strands": 12159, "format": 12160, "importers": 12161, "itionally": 12162, "joins": 12163, "percept": 12164, "pertaining": 12165, "Itur": 12166, "timeframe": 12167, "Reul": 12168, "elong": 12169, "Proble": 12170, "Proper": 12171, "Proposed": 12172, "genital": 12173, "questioner": 12174, "interconnection": 12175, "interlinked": 12176, "interfere": 12177, "redress": 12178, "countless": 12179, "ongiform": 12180, "curtail": 12181, "ensing": 12182, "operates": 12183, "matches": 12184, "Assurance": 12185, "guests": 12186, "overhaul": 12187, "transaction": 12188, "responsibly": 12189, "adds": 12190, "measuring": 12191, "obesity": 12192, "mini": 12193, "mony": 12194, "bovine": 12195, "ogas": 12196, "ogerd": 12197, "factual": 12198, "useum": 12199, "stems": 12200, "Ankara": 12201, "suspending": 12202, "igi": 12203, "ignant": 12204, "cents": 12205, "balancing": 12206, "Bey": 12207, "Along": 12208, "expressions": 12209, "neglected": 12210, "secondary": 12211, "Onesta": 12212, "rants": 12213, "opportune": 12214, "lett": 12215, "communicated": 12216, "reaches": 12217, "carriage": 12218, "topoulos": 12219, "transporting": 12220, "warte": 12221, "demic": 12222, "Sella": 12223, "Poll": 12224, "Rio": 12225, "deferred": 12226, "Extra": 12227, "Exclusion": 12228, "childcare": 12229, "Liam": 12230, "parental": 12231, "Minor": 12232, "mindful": 12233, "Ensuring": 12234, "carers": 12235, "harvest": 12236, "mistrust": 12237, "misunderstood": 12238, "identifies": 12239, "violates": 12240, "violated": 12241, "nette": 12242, "gging": 12243, "voiced": 12244, "bioc": 12245, "biogas": 12246, "insisting": 12247, "insofar": 12248, "Mayer": 12249, "downturn": 12250, "Trading": 12251, "PEACE": 12252, "Jov": 12253, "Joan": 12254, "Johan": 12255, "achievable": 12256, "appeals": 12257, "generic": 12258, "presidencies": 12259, "shell": 12260, "flagr": 12261, "headquarters": 12262, "immigrant": 12263, "handic": 12264, "impacts": 12265, "Orb": 12266, "Advisory": 12267, "specialised": 12268, "failures": 12269, "NGO": 12270, "professions": 12271, "Brun": 12272, "monella": 12273, "icycle": 12274, "reviewing": 12275, "stopping": 12276, "Papadim": 12277, "consular": 12278, "waterways": 12279, "Guy": 12280, "Guerre": 12281, "personality": 12282, "precious": 12283, "choosing": 12284, "bigger": 12285, "liberalise": 12286, "Cars": 12287, "Mongolia": 12288, "sufficiency": 12289, "Price": 12290, "Solomon": 12291, "Parties": 12292, "reminding": 12293, "Programmes": 12294, "volat": 12295, "fluct": 12296, "Stauner": 12297, "chairs": 12298, "emerges": 12299, "ashed": 12300,
[...]
